<unk>	0
<s>	0
</s>	0
▁이	-0
▁1	-1
으로	-2
에서	-3
▁있	-4
▁2	-5
▁그	-6
▁대	-7
▁사	-8
었다	-9
이다	-10
▁지	-11
▁수	-12
▁가	-13
▁시	-14
▁기	-15
▁전	-16
▁아	-17
▁하	-18
했다	-19
▁있다	-20
▁19	-21
▁다	-22
▁20	-23
▁제	-24
하였	-25
▁일	-26
▁중	-27
▁한	-28
▁정	-29
▁것	-30
하는	-31
▁주	-32
▁자	-33
""	-34
▁위	-35
되었다	-36
▁경	-37
▁공	-38
▁인	-39
▁유	-40
하고	-41
▁보	-42
▁등	-43
▁부	-44
하였다	-45
하여	-46
▁조	-47
▁동	-48
으며	-49
▁3	-50
▁모	-51
▁의	-52
▁나	-53
▁선	-54
▁연	-55
한다	-56
에는	-57
▁마	-58
▁발	-59
▁소	-60
▁미	-61
▁오	-62
▁영	-63
▁고	-64
▁개	-65
▁구	-66
▁세	-67
▁상	-68
▁비	-69
▁도	-70
▁국	-71
▁스	-72
▁후	-73
▁때	-74
▁서	-75
▁여	-76
▁관	-77
▁해	-78
▁있는	-79
▁성	-80
▁201	-81
▁신	-82
부터	-83
▁프	-84
지만	-85
▁대한	-86
▁4	-87
▁않	-88
▁200	-89
▁방	-90
되어	-91
▁또	-92
▁통	-93
에게	-94
▁만	-95
▁바	-96
▁무	-97
까지	-98
▁내	-99
▁남	-100
▁장	-101
적인	-102
▁교	-103
▁역	-104
▁5	-105
▁현	-106
적으로	-107
▁같	-108
▁결	-109
▁거	-110
▁출	-111
▁""	-112
▁포	-113
▁문	-114
된다	-115
▁우	-116
▁생	-117
이라	-118
▁불	-119
▁진	-120
▁원	-121
▁어	-122
▁최	-123
▁작	-124
▁당	-125
00	-126
▁노	-127
▁알	-128
▁반	-129
▁따	-130
▁없	-131
들이	-132
되었	-133
▁계	-134
▁받	-135
▁강	-136
."	-137
▁분	-138
면서	-139
들은	-140
▁"	-141
학교	-142
▁사용	-143
▁6	-144
▁파	-145
▁말	-146
에서는	-147
하기	-148
▁실	-149
▁두	-150
▁이후	-151
▁단	-152
▁명	-153
▁《	-154
하게	-155
▁재	-156
▁함	-157
▁리	-158
▁설	-159
▁차	-160
▁예	-161
▁'	-162
국의	-163
년에	-164
▁한다	-165
▁7	-166
▁안	-167
았다	-168
▁8	-169
▁특	-170
▁요	-171
()	-172
▁일본	-173
▁종	-174
였다	-175
▁데	-176
▁많	-177
으나	-178
▁에	-179
▁초	-180
▁다음	-181
▁독	-182
▁군	-183
▁10	-184
▁그는	-185
▁추	-186
▁로	-187
▁감	-188
▁다른	-189
▁배	-190
▁활	-191
▁및	-192
▁9	-193
▁더	-194
는데	-195
▁위해	-196
리아	-197
▁건	-198
▁지역	-199
▁되었다	-200
▁입	-201
▁참	-202
▁카	-203
▁운	-204
▁형	-205
▁같은	-206
▁199	-207
주의	-208
스트	-209
▁때문	-210
▁태	-211
▁매	-212
▁적	-213
▁라	-214
들의	-215
▁타	-216
▁18	-217
▁행	-218
▁평	-219
▁양	-220
▁음	-221
▁시작	-222
들을	-223
▁과	-224
▁그리	-225
들어	-226
▁산	-227
▁열	-228
되는	-229
▁승	-230
▁북	-231
이며	-232
▁피	-233
▁따라	-234
▁김	-235
▁올	-236
하며	-237
▁사람	-238
▁본	-239
▁왕	-240
기도	-241
▁미국	-242
▁회	-243
▁12	-244
▁베	-245
▁크	-246
▁함께	-247
▁화	-248
▁프로	-249
▁그러	-250
▁코	-251
▁(	-252
레이	-253
▁대한민	-254
▁또한	-255
▁번	-256
▁호	-257
라는	-258
▁변	-259
▁외	-260
▁총	-261
▁자신	-262
▁각	-263
▁목	-264
▁임	-265
▁물	-266
이나	-267
▁표	-268
▁처	-269
▁달	-270
하지	-271
시아	-272
▁경우	-273
▁약	-274
▁직	-275
라고	-276
▁속	-277
▁현재	-278
▁간	-279
▁새	-280
▁그의	-281
▁가장	-282
▁학	-283
▁때문에	-284
▁11	-285
기에	-286
▁민	-287
▁사이	-288
하다	-289
▁당시	-290
▁기록	-291
▁위치	-292
▁것을	-293
에도	-294
▁집	-295
▁의해	-296
▁확	-297
▁게	-298
기를	-299
▁세계	-300
▁하나	-301
▁이름	-302
되고	-303
▁것으로	-304
▁저	-305
▁점	-306
▁항	-307
▁그러나	-308
▁198	-309
▁있었다	-310
▁국가	-311
▁드	-312
▁뒤	-313
▁체	-314
▁했다	-315
▁것이	-316
▁있으며	-317
▁존	-318
▁메	-319
),	-320
▁한국	-321
▁선수	-322
▁또는	-323
▁못	-324
스의	-325
▁레	-326
▁복	-327
이라고	-328
▁통해	-329
리는	-330
지는	-331
▁된다	-332
▁필	-333
▁투	-334
▁철	-335
▁토	-336
졌다	-337
했고	-338
▁증	-339
▁합	-340
▁활동	-341
▁영화	-342
▁많은	-343
▁근	-344
▁청	-345
▁박	-346
▁광	-347
▁법	-348
▁천	-349
▁브	-350
▁조선	-351
▁그리고	-352
스는	-353
▁치	-354
리를	-355
▁살	-356
▁언	-357
▁프랑	-358
▁판	-359
▁가지	-360
▁것이다	-361
▁축	-362
▁야	-363
▁편	-364
▁아니	-365
▁금	-366
하면서	-367
이라는	-368
▁돌	-369
▁들어	-370
일에	-371
▁심	-372
▁15	-373
▁포함	-374
하였고	-375
▁디	-376
▁창	-377
▁하는	-378
▁높	-379
▁대해	-380
▁있었	-381
▁첫	-382
▁197	-383
는다	-384
▁)	-385
▁경기	-386
▁버	-387
이었다	-388
▁삼	-389
▁플	-390
▁여러	-391
▁완	-392
▁다시	-393
▁쓰	-394
▁충	-395
▁할	-396
▁트	-397
▁16	-398
대로	-399
사를	-400
▁황	-401
▁뜻	-402
▁사회	-403
▁되	-404
20	-405
개의	-406
랜드	-407
▁‘	-408
로서	-409
▁다음과	-410
▁연구	-411
▁병	-412
▁큰	-413
보다	-414
▁S	-415
19	-416
▁모두	-417
▁일부	-418
상을	-419
▁대한민국	-420
▁196	-421
▁모든	-422
▁A	-423
되었고	-424
▁애	-425
▁네	-426
▁17	-427
▁페	-428
▁취	-429
▁F	-430
▁등이	-431
▁팀	-432
성을	-433
▁패	-434
▁시즌	-435
장을	-436
▁죽	-437
▁서울	-438
▁권	-439
지를	-440
▁루	-441
▁독일	-442
위를	-443
▁백	-444
▁용	-445
▁규	-446
▁알려	-447
▁순	-448
▁정부	-449
▁친	-450
이었	-451
▁하였다	-452
▁처음	-453
▁위한	-454
▁194	-455
▁채	-456
자가	-457
▁은	-458
▁도시	-459
▁C	-460
부분	-461
▁동안	-462
니아	-463
▁전쟁	-464
▁이루	-465
▁식	-466
거나	-467
▁제작	-468
▁중국	-469
했으며	-470
대의	-471
▁클	-472
회의	-473
▁자신의	-474
▁끝	-475
라이	-476
년부터	-477
▁히	-478
▁존재	-479
력을	-480
▁대표	-481
▁구성	-482
이고	-483
▁있어	-484
▁등의	-485
▁~	-486
▁이상	-487
▁이용	-488
▁손	-489
▁것은	-490
▁문제	-491
▁아이	-492
▁일반	-493
▁이어	-494
▁앞	-495
리에	-496
시에	-497
도의	-498
도로	-499
등학교	-500
▁감독	-501
러한	-502
▁가능	-503
이는	-504
▁나타	-505
▁14	-506
▁프랑스	-507
▁M	-508
▁즉	-509
▁허	-510
▁러	-511
▁환	-512
▁작품	-513
▁영국	-514
▁테	-515
▁논	-516
er	-517
▁이러한	-518
▁접	-519
▁중심	-520
▁새로	-521
▁맡	-522
▁주장	-523
▁발견	-524
▁정치	-525
▁맞	-526
(,	-527
▁195	-528
도록	-529
났다	-530
▁온	-531
나라	-532
년대	-533
▁걸	-534
▁개발	-535
들과	-536
년에는	-537
통령	-538
▁13	-539
▁대부분	-540
▁리그	-541
▁준	-542
세기	-543
▁협	-544
▁하지만	-545
▁곳	-546
▁농	-547
로부터	-548
이자	-549
▁이는	-550
▁영향	-551
▁뉴	-552
▁같다	-553
▁갖	-554
시키	-555
되었으며	-556
▁게임	-557
▁등을	-558
▁대한민국의	-559
자의	-560
하면	-561
▁길	-562
다는	-563
▁검	-564
▁잘	-565
▁축구	-566
스를	-567
리가	-568
▁국제	-569
▁사건	-570
에서도	-571
▁사망	-572
위원	-573
▁밝	-574
서는	-575
군의	-576
▁볼	-577
다고	-578
쪽으로	-579
기는	-580
명의	-581
▁참여	-582
로는	-583
▁별	-584
▁역사	-585
▁설치	-586
기가	-587
▁공격	-588
▁의미	-589
▁발생	-590
▁지방	-591
▁캐	-592
했던	-593
정을	-594
▁월	-595
or	-596
▁대통령	-597
▁막	-598
▁되어	-599
▁전투	-600
▁향	-601
들에게	-602
▁이를	-603
성이	-604
리카	-605
▁담	-606
▁폭	-607
▁대회	-608
▁태어	-609
▁문화	-610
▁결과	-611
▁하고	-612
▁귀	-613
▁음악	-614
▁관련	-615
▁밀	-616
▁발표	-617
스가	-618
와의	-619
▁관계	-620
년까지	-621
란드	-622
▁우승	-623
▁얻	-624
자는	-625
월에	-626
▁육	-627
자를	-628
인의	-629
▁진행	-630
어진	-631
▁K	-632
▁경제	-633
▁인해	-634
▁특히	-635
하였으며	-636
▁효	-637
▁번째	-638
000	-639
an	-640
▁최초	-641
기의	-642
▁193	-643
on	-644
▁다양	-645
도를	-646
▁일어	-647
▁T	-648
▁대학	-649
▁러시아	-650
리스	-651
▁방송	-652
▁위치한	-653
▁선거	-654
요한	-655
이트	-656
▁이전	-657
▁날	-658
▁키	-659
in	-660
▁유럽	-661
▁줄	-662
▁프로그	-663
▁극	-664
▁절	-665
사가	-666
▁새로운	-667
▁30	-668
▁이에	-669
리그	-670
▁암	-671
▁석	-672
대를	-673
▁측	-674
▁생각	-675
리의	-676
▁갈	-677
▁사실	-678
▁폐	-679
▁수도	-680
▁시간	-681
▁된	-682
▁해당	-683
▁형태	-684
▁질	-685
자로	-686
▁책	-687
▁면	-688
▁홍	-689
km	-690
르는	-691
▁만들어	-692
▁부분	-693
▁받았다	-694
▁좋	-695
▁그녀	-696
▁독립	-697
▁받아	-698
▁침	-699
과의	-700
▁주로	-701
▁설립	-702
렸다	-703
▁교육	-704
(1	-705
▁결정	-706
원을	-707
▁B	-708
▁계속	-709
림픽	-710
▁로마	-711
▁참가	-712
▁이것	-713
▁D	-714
▁같이	-715
▁자유	-716
식을	-717
▁않았다	-718
▁글	-719
▁이탈	-720
▁기술	-721
▁중앙	-722
▁매우	-723
▁있고	-724
화국	-725
▁상태	-726
디오	-727
▁소속	-728
지로	-729
▁“	-730
▁누	-731
▁탈	-732
▁봉	-733
인이	-734
므로	-735
▁I	-736
스터	-737
▁있던	-738
▁헤	-739
▁잡	-740
▁구조	-741
▁벌	-742
부의	-743
▁머	-744
▁성공	-745
르크	-746
▁운영	-747
▁곡	-748
명을	-749
▁가지고	-750
처럼	-751
▁몇	-752
▁아니라	-753
▁넘	-754
▁인구	-755
▁프로그램	-756
▁블	-757
▁커	-758
▁출연	-759
했지만	-760
▁범	-761
▁생산	-762
▁등장	-763
▁엔	-764
전을	-765
▁탄	-766
되지	-767
▁아버	-768
사의	-769
다가	-770
▁올림픽	-771
이스	-772
기로	-773
으로서	-774
▁없는	-775
드는	-776
▁혼	-777
대에	-778
▁출신	-779
▁골	-780
▁돌아	-781
비아	-782
▁기준	-783
▁차지	-784
▁2010	-785
▁이탈리아	-786
▁찾	-787
▁만들	-788
에서의	-789
▁악	-790
도가	-791
▁발매	-792
▁없다	-793
▁난	-794
▁들	-795
▁급	-796
이지	-797
▁섬	-798
▁운동	-799
왔다	-800
장이	-801
▁결국	-802
번째	-803
▁아들	-804
하기도	-805
▁않고	-806
▁제공	-807
프트	-808
▁지정	-809
▁따르	-810
▁아래	-811
▁주요	-812
▁전체	-813
▁슈	-814
해서	-815
대학교	-816
권을	-817
ar	-818
▁와	-819
▁니	-820
▁2008	-821
▁계획	-822
명이	-823
리즈	-824
▁P	-825
▁조직	-826
이션	-827
▁이유	-828
▁여성	-829
▁쿠	-830
▁터	-831
사는	-832
자인	-833
▁떨	-834
▁다양한	-835
화를	-836
스와	-837
▁데뷔	-838
군은	-839
▁행정	-840
▁많이	-841
▁역할	-842
▁떠	-843
▁업	-844
-1	-845
▁U	-846
지의	-847
▁25	-848
▁방법	-849
▁〈	-850
la	-851
간의	-852
▁최고	-853
▁한편	-854
하자	-855
▁후보	-856
▁고려	-857
▁송	-858
▁빠	-859
운데	-860
▁힘	-861
▁둘	-862
나는	-863
▁거의	-864
▁내용	-865
▁음반	-866
en	-867
▁지원	-868
라마	-869
수를	-870
음을	-871
으로써	-872
▁타이	-873
부에	-874
스템	-875
지가	-876
냈다	-877
진다	-878
▁연결	-879
▁케	-880
▁국민	-881
수의	-882
▁팔	-883
스크	-884
▁출전	-885
인민	-886
▁남아	-887
▁않는다	-888
원의	-889
▁2009	-890
도는	-891
▁192	-892
▁2011	-893
▁폴	-894
▁윤	-895
▁2012	-896
▁앨	-897
리고	-898
▁좌	-899
스타	-900
▁모습	-901
남도	-902
▁영향을	-903
장은	-904
▁유명	-905
▁가운데	-906
하려	-907
장으로	-908
▁높은	-909
했으나	-910
▁하여	-911
▁N	-912
인다	-913
선의	-914
▁필요	-915
하던	-916
▁-	-917
대표	-918
학자	-919
우스	-920
▁2014	-921
▁라이	-922
▁묘	-923
가는	-924
어로	-925
▁따르면	-926
였던	-927
▁L	-928
으로부터	-929
▁잠	-930
▁이루어	-931
▁스페	-932
점을	-933
▁과정	-934
어를	-935
▁헌	-936
사로	-937
민주	-938
▁이미	-939
스로	-940
지막	-941
됐다	-942
▁인터	-943
지에	-944
전에	-945
▁표현	-946
▁격	-947
▁가리	-948
▁2007	-949
▁콘	-950
대한	-951
해야	-952
성의	-953
▁스타	-954
▁직접	-955
제로	-956
▁열린	-957
원이	-958
▁데이	-959
▁보고	-960
▁능	-961
▁191	-962
▁G	-963
▁진출	-964
력이	-965
머니	-966
▁인정	-967
대학	-968
▁않은	-969
▁대학교	-970
▁얼	-971
▁공식	-972
었고	-973
수가	-974
▁추가	-975
▁21	-976
▁2013	-977
▁마지막	-978
시켰	-979
▁졸	-980
▁유지	-981
▁미국의	-982
▁시스템	-983
이가	-984
▁상황	-985
▁붙	-986
▁보여	-987
▁정보	-988
▁임명	-989
▁몰	-990
▁그것	-991
▁이름을	-992
▁몸	-993
▁칼	-994
▁2015	-995
▁각각	-996
▁평가	-997
▁알려져	-998
▁작은	-999
▁기능	-1000
▁2016	-1001
▁대신	-1002
지고	-1003
시의	-1004
▁수상	-1005
▁이야	-1006
▁먹	-1007
▁따라서	-1008
▁R	-1009
제를	-1010
위원회	-1011
▁형성	-1012
▁바이	-1013
전히	-1014
들에	-1015
으로는	-1016
21	-1017
▁[	-1018
운동	-1019
▁일본의	-1020
al	-1021
▁중요한	-1022
▁않았	-1023
▁시리즈	-1024
▁생활	-1025
구의	-1026
▁2006	-1027
상의	-1028
▁뛰	-1029
▁인도	-1030
▁건설	-1031
▁월드	-1032
▁2018	-1033
전에서	-1034
군에	-1035
군이	-1036
▁눈	-1037
▁제국	-1038
,000	-1039
▁건물	-1040
▁민주	-1041
▁24	-1042
▁빌	-1043
▁그가	-1044
선을	-1045
▁자연	-1046
갔다	-1047
▁활약	-1048
▁철도	-1049
이드	-1050
▁컴	-1051
▁되는	-1052
▁경상	-1053
▁공개	-1054
▁발전	-1055
인을	-1056
▁시대	-1057
▁시절	-1058
니다	-1059
▁녹	-1060
▁크게	-1061
FA	-1062
치는	-1063
▁낮	-1064
▁풍	-1065
일부터	-1066
▁H	-1067
▁후에	-1068
문화	-1069
인은	-1070
▁관한	-1071
▁마이	-1072
▁변경	-1073
사에	-1074
▁2017	-1075
▁E	-1076
▁비롯	-1077
▁서로	-1078
업을	-1079
▁학교	-1080
▁있는데	-1081
▁그리스	-1082
▁압	-1083
원은	-1084
▁오스트	-1085
부를	-1086
▁2000	-1087
▁쇼	-1088
▁개최	-1089
▁항공	-1090
▁핵	-1091
▁23	-1092
▁뿐	-1093
▁드라마	-1094
▁엘	-1095
▁일으	-1096
▁요구	-1097
어는	-1098
위에	-1099
▁정도	-1100
▁센	-1101
▁졸업	-1102
▁방식	-1103
▁시작했다	-1104
▁0	-1105
계를	-1106
▁반대	-1107
▁홈	-1108
세의	-1109
▁지금	-1110
▁느	-1111
▁이론	-1112
▁100	-1113
▁결혼	-1114
▁기업	-1115
수로	-1116
▁공동	-1117
▁않는	-1118
치를	-1119
▁가진	-1120
▁역시	-1121
인민공	-1122
▁사이에	-1123
북도	-1124
▁인물	-1125
▁그룹	-1126
▁레이	-1127
▁아르	-1128
▁대전	-1129
▁상대	-1130
▁22	-1131
부는	-1132
(19	-1133
▁군사	-1134
▁프리	-1135
at	-1136
▁퍼	-1137
▁노동	-1138
원으로	-1139
되면서	-1140
르트	-1141
▁뜻은	-1142
▁싱	-1143
▁응	-1144
lt	-1145
▁마을	-1146
▁브라	-1147
▁관리	-1148
▁학생	-1149
▁플레이	-1150
프리카	-1151
▁&	-1152
문을	-1153
임을	-1154
스탄	-1155
).	-1156
▁비판	-1157
▁역할을	-1158
▁동시에	-1159
▁말한다	-1160
▁나라	-1161
▁아닌	-1162
▁놓	-1163
원전	-1164
▁원래	-1165
트로	-1166
▁색	-1167
되며	-1168
제가	-1169
▁기간	-1170
▁특징	-1171
있다	-1172
▁실시	-1173
▁희	-1174
▁만든	-1175
▁2005	-1176
▁거쳐	-1177
▁지도	-1178
▁전통	-1179
상이	-1180
▁연합	-1181
대는	-1182
▁분류	-1183
회를	-1184
대가	-1185
▁하였	-1186
▁운행	-1187
장의	-1188
▁배우	-1189
▁서비	-1190
▁정의	-1191
▁어떤	-1192
st	-1193
▁혹	-1194
레스	-1195
▁울	-1196
▁티	-1197
▁딸	-1198
▁현대	-1199
▁28	-1200
▁노래	-1201
▁26	-1202
이었던	-1203
이를	-1204
▁긴	-1205
▁190	-1206
▁제외	-1207
▁수행	-1208
▁있다고	-1209
▁이르	-1210
▁개인	-1211
▁2019	-1212
▁밴	-1213
상으로	-1214
▁기본	-1215
장에	-1216
▁계약	-1217
정한	-1218
군을	-1219
주는	-1220
▁기반	-1221
▁소련	-1222
▁이동	-1223
gt	-1224
제의	-1225
체의	-1226
했는데	-1227
운드	-1228
자와	-1229
▁경기도	-1230
▁2004	-1231
▁초기	-1232
▁27	-1233
ic	-1234
▁중화	-1235
하는데	-1236
▁자동	-1237
.""	-1238
수는	-1239
▁처음으로	-1240
▁지구	-1241
학적	-1242
하였으나	-1243
▁판매	-1244
킨다	-1245
▁의한	-1246
▁정책	-1247
▁부산	-1248
▁앨범	-1249
▁있을	-1250
▁견	-1251
▁모델	-1252
▁퇴	-1253
▁최초의	-1254
▁증가	-1255
광역	-1256
▁인간	-1257
이의	-1258
▁싸	-1259
▁민족	-1260
이기도	-1261
▁f	-1262
▁기타	-1263
▁지하	-1264
▁일반적으로	-1265
▁2020	-1266
단의	-1267
▁승강	-1268
물을	-1269
▁달리	-1270
하지만	-1271
격을	-1272
장에서	-1273
소를	-1274
▁위하여	-1275
▁개의	-1276
오는	-1277
▁설명	-1278
른다	-1279
▁종교	-1280
특별	-1281
중에	-1282
역이다	-1283
▁지나	-1284
체를	-1285
▁연방	-1286
혔다	-1287
▁지배	-1288
▁휴	-1289
▁이끌	-1290
▁전문	-1291
▁기존	-1292
▁빈	-1293
성은	-1294
▁여자	-1295
▁워	-1296
▁비슷	-1297
적을	-1298
▁도쿄	-1299
▁혁	-1300
어가	-1301
▁보호	-1302
▁도입	-1303
BS	-1304
과는	-1305
▁벨	-1306
▁경기에서	-1307
▁전국	-1308
▁될	-1309
키는	-1310
▁특별	-1311
▁기관	-1312
트를	-1313
▁망	-1314
▁엄	-1315
▁주변	-1316
▁모양	-1317
리와	-1318
▁옮	-1319
드의	-1320
▁보통	-1321
▁궁	-1322
mu	-1323
▁하며	-1324
▁바로	-1325
독교	-1326
시마	-1327
▁이때	-1328
가와	-1329
▁추정	-1330
서를	-1331
▁어머니	-1332
▁W	-1333
▁있다는	-1334
10	-1335
▁태어났다	-1336
▁변화	-1337
리오	-1338
무를	-1339
▁아버지	-1340
am	-1341
▁국내	-1342
린다	-1343
▁경찰	-1344
시간	-1345
▁받은	-1346
▁훈	-1347
일한	-1348
▁산업	-1349
▁적용	-1350
나다	-1351
▁과거	-1352
학과	-1353
▁전라	-1354
▁되고	-1355
▁FC	-1356
▁비교	-1357
▁그래	-1358
▁콜	-1359
르게	-1360
▁명칭	-1361
▁보내	-1362
▁겸	-1363
트의	-1364
▁피해	-1365
도에	-1366
동안	-1367
▁지지	-1368
▁푸	-1369
리로	-1370
의를	-1371
▁행동	-1372
▁슬	-1373
▁지휘	-1374
▁확인	-1375
▁「	-1376
▁혹은	-1377
있는	-1378
▁그를	-1379
쪽에	-1380
마다	-1381
시켰다	-1382
스에	-1383
▁때문이다	-1384
카이	-1385
▁받았	-1386
▁중심으로	-1387
]]	-1388
▁없이	-1389
▁노선	-1390
▁상당	-1391
▁사업	-1392
드를	-1393
하거나	-1394
▁획	-1395
▁이것은	-1396
▁대부분의	-1397
기관	-1398
정에	-1399
위로	-1400
체가	-1401
드로	-1402
▁29	-1403
▁이적	-1404
▁규모	-1405
트는	-1406
▁다이	-1407
▁잉	-1408
▁50	-1409
▁환경	-1410
▁가까	-1411
▁흔	-1412
▁J	-1413
어의	-1414
▁교황	-1415
▁탐	-1416
▁샤	-1417
회는	-1418
▁2002	-1419
▁득	-1420
▁웨	-1421
es	-1422
쳤다	-1423
▁가족	-1424
▁애니	-1425
▁역임	-1426
▁탑	-1427
▁분야	-1428
▁야구	-1429
▁공연	-1430
▁[[	-1431
▁먼	-1432
연구	-1433
▁방향	-1434
▁실패	-1435
▁현재의	-1436
▁열차	-1437
▁사랑	-1438
▁곧	-1439
▁떨어	-1440
▁통합	-1441
▁있지만	-1442
단을	-1443
▁자신이	-1444
가지	-1445
▁차량	-1446
▁밖	-1447
▁받고	-1448
▁2003	-1449
했다고	-1450
▁건축	-1451
▁공간	-1452
세는	-1453
▁이상의	-1454
▁출시	-1455
▁국가대표	-1456
되었던	-1457
사와	-1458
▁태양	-1459
스코	-1460
▁담당	-1461
▁어느	-1462
▁스위	-1463
▁찾아	-1464
▁맥	-1465
경기	-1466
▁선출	-1467
자들은	-1468
▁오늘	-1469
▁대체	-1470
▁착	-1471
원에	-1472
제는	-1473
▁염	-1474
▁기독교	-1475
▁여기	-1476
일까지	-1477
▁어린	-1478
했을	-1479
광역시	-1480
▁선정	-1481
▁개념	-1482
인민공화국	-1483
리지	-1484
당의	-1485
▁올라	-1486
▁우주	-1487
퓨터	-1488
it	-1489
움을	-1490
▁1990	-1491
▁월드컵	-1492
호를	-1493
호로	-1494
▁풀	-1495
▁부족	-1496
▁숙	-1497
▁되었고	-1498
▁자기	-1499
▁스페인	-1500
년의	-1501
▁언급	-1502
▁두고	-1503
▁for	-1504
mula	-1505
▁이런	-1506
▁없었다	-1507
▁주연	-1508
▁늘	-1509
야마	-1510
부가	-1511
▁선택	-1512
▁갑	-1513
..	-1514
▁넣	-1515
▁소설	-1516
▁낙	-1517
성과	-1518
기와	-1519
▁활동을	-1520
적이	-1521
▁너	-1522
메이션	-1523
치가	-1524
50	-1525
성에	-1526
▁부르	-1527
▁세포	-1528
단은	-1529
▁이와	-1530
명은	-1531
▁189	-1532
▁옥	-1533
이로	-1534
▁도로	-1535
이에	-1536
▁충청	-1537
심을	-1538
▁O	-1539
시켜	-1540
▁흐	-1541
계의	-1542
관을	-1543
렇게	-1544
▁더욱	-1545
면에	-1546
▁걸쳐	-1547
▁뮤	-1548
텔레	-1549
크로	-1550
▁획득	-1551
22	-1552
el	-1553
▁기념	-1554
세가	-1555
피언	-1556
▁작곡	-1557
으면	-1558
드리	-1559
▁지속	-1560
▁있어서	-1561
쪽으로는	-1562
종의	-1563
구하고	-1564
▁뉴욕	-1565
▁넓	-1566
인으로	-1567
▁사고	-1568
▁최대	-1569
▁formula	-1570
▁몽	-1571
▁기원전	-1572
▁반응	-1573
방송	-1574
▁효과	-1575
200	-1576
▁시민	-1577
▁연주	-1578
▁있었던	-1579
▁,	-1580
▁31	-1581
▁지역에	-1582
구에	-1583
▁최종	-1584
▁데이터	-1585
겼다	-1586
▁내려	-1587
역을	-1588
▁멤	-1589
is	-1590
▁컴퓨터	-1591
하도록	-1592
▁거주	-1593
▁최근	-1594
▁어려	-1595
▁언어	-1596
▁그녀는	-1597
▁40	-1598
세를	-1599
▁땅	-1600
▁지역의	-1601
▁불가	-1602
조의	-1603
▁과학	-1604
▁나가	-1605
한다는	-1606
▁위원	-1607
▁등에	-1608
▁뛰어	-1609
▁옛	-1610
▁보인다	-1611
▁전에	-1612
리에서	-1613
▁조사	-1614
▁칸	-1615
▁것이라고	-1616
교육	-1617
상은	-1618
▁하다	-1619
일을	-1620
▁말했다	-1621
▁에너	-1622
▁동물	-1623
가의	-1624
▁영화이다	-1625
▁점령	-1626
▁선언	-1627
▁맺	-1628
▁잔	-1629
▁챔	-1630
렀다	-1631
트남	-1632
▁그들의	-1633
상에	-1634
자들이	-1635
일본	-1636
난다	-1637
▁칭	-1638
▁예정	-1639
▁사이의	-1640
▁베이	-1641
▁유사	-1642
▁종류	-1643
▁결승	-1644
어서	-1645
▁클럽	-1646
▁애니메이션	-1647
▁공산	-1648
일에는	-1649
▁최초로	-1650
▁있게	-1651
ou	-1652
널리	-1653
▁목표	-1654
▁소유	-1655
학을	-1656
▁멤버	-1657
시키는	-1658
메리카	-1659
▁캐나다	-1660
▁명령	-1661
함으로써	-1662
소가	-1663
▁불구하고	-1664
▁구간	-1665
메달	-1666
▁지정되었다	-1667
▁정당	-1668
▁좋은	-1669
▁움	-1670
▁헌법	-1671
▁이유로	-1672
포츠	-1673
체는	-1674
▁선발	-1675
▁등으로	-1676
re	-1677
동에	-1678
회에서	-1679
▁자료	-1680
화가	-1681
식으로	-1682
이지만	-1683
▁후반	-1684
▁V	-1685
구를	-1686
▁대중	-1687
▁2001	-1688
개월	-1689
만을	-1690
▁물리	-1691
스에서	-1692
▁모습을	-1693
▁이해	-1694
▁잃	-1695
▁이들은	-1696
내는	-1697
▁제한	-1698
▁밝혔다	-1699
되었으나	-1700
▁흑	-1701
▁포함한	-1702
▁전기	-1703
▁1980	-1704
▁오늘날	-1705
▁챔피언	-1706
비전	-1707
BC	-1708
만이	-1709
18	-1710
라도	-1711
▁런	-1712
▁징	-1713
▁교통	-1714
고등학교	-1715
프로	-1716
▁소비	-1717
되기	-1718
▁깊	-1719
▁예술	-1720
▁조건	-1721
글랜드	-1722
이란	-1723
▁연속	-1724
정부	-1725
▁믿	-1726
지와	-1727
▁FI	-1728
▁서울특별	-1729
▁시설	-1730
.5	-1731
▁하나이다	-1732
▁마음	-1733
▁평균	-1734
▁정신	-1735
▁분석	-1736
▁이름은	-1737
▁거두	-1738
▁윌	-1739
▁통과	-1740
▁스트	-1741
▁사용하는	-1742
le	-1743
골을	-1744
▁승리	-1745
▁주민	-1746
▁입단	-1747
정이	-1748
웠다	-1749
덜란드	-1750
▁북한	-1751
▁완전히	-1752
▁경험	-1753
원에서	-1754
년간	-1755
금을	-1756
▁정확	-1757
▁치료	-1758
▁알려진	-1759
▁겨	-1760
▁고대	-1761
문에	-1762
지지	-1763
▁폴란드	-1764
단이	-1765
회에	-1766
스카	-1767
▁아시아	-1768
비를	-1769
▁국가대표팀	-1770
▁끌	-1771
관은	-1772
었으며	-1773
▁명의	-1774
15	-1775
진을	-1776
나무	-1777
계에	-1778
▁분리	-1779
▁결합	-1780
▁것에	-1781
▁제안	-1782
▁강화	-1783
▁실험	-1784
▁드러	-1785
▁여겨	-1786
ro	-1787
▁조약	-1788
▁그들은	-1789
he	-1790
명으로	-1791
▁인천	-1792
▁수준	-1793
관이	-1794
학의	-1795
▁실제	-1796
▁구분	-1797
▁방문	-1798
▁하나의	-1799
▁목록	-1800
▁하지	-1801
라의	-1802
적은	-1803
▁흥	-1804
▁왜	-1805
▁나머	-1806
▁싱글	-1807
▁작업	-1808
▁공화국	-1809
▁아직	-1810
부르크	-1811
▁성장	-1812
▁못했다	-1813
▁우리	-1814
▁중요	-1815
▁출판	-1816
▁팬	-1817
▁맡았다	-1818
회가	-1819
선에	-1820
지방	-1821
▁때까지	-1822
▁그런	-1823
▁솔	-1824
▁물질	-1825
▁마르	-1826
인데	-1827
▁이곳	-1828
▁포르	-1829
단에	-1830
식이	-1831
▁익	-1832
▁네덜란드	-1833
시대	-1834
▁1999	-1835
으므로	-1836
직을	-1837
"")	-1838
▁돈	-1839
▁영토	-1840
▁비해	-1841
랐다	-1842
▁텔레	-1843
소의	-1844
시는	-1845
▁발달	-1846
▁기여	-1847
▁움직	-1848
▁은퇴	-1849
▁하나로	-1850
형을	-1851
로의	-1852
▁TV	-1853
루스	-1854
▁전자	-1855
▁윈	-1856
12	-1857
▁국립	-1858
지역	-1859
▁요청	-1860
▁중에	-1861
▁기준으로	-1862
▁1,	-1863
▁2021	-1864
▁이듬	-1865
선이	-1866
▁있도록	-1867
▁사상	-1868
30	-1869
스턴	-1870
▁멸	-1871
들로	-1872
▁널리	-1873
▁잉글랜드	-1874
▁현재는	-1875
▁찬	-1876
로를	-1877
▁컨	-1878
민주주의	-1879
▁제품	-1880
선거	-1881
▁대구	-1882
치고	-1883
▁1998	-1884
▁사람이	-1885
▁접근	-1886
정의	-1887
모토	-1888
▁제조	-1889
▁개봉	-1890
▁FIFA	-1891
▁그림	-1892
▁유전	-1893
드가	-1894
▁관할	-1895
▁방영	-1896
▁파괴	-1897
▁아프리카	-1898
가를	-1899
▁베트남	-1900
▁혈	-1901
▁덴	-1902
식의	-1903
▁세워	-1904
었던	-1905
▁자치	-1906
산을	-1907
바이	-1908
일랜드	-1909
▁이듬해	-1910
▁덕	-1911
▁이름으로	-1912
들도	-1913
▁설계	-1914
▁유래	-1915
▁확장	-1916
▁조지	-1917
▁오래	-1918
▁가문	-1919
인과	-1920
르고	-1921
▁액	-1922
▁소재	-1923
▁예를	-1924
▁우승을	-1925
스테	-1926
16	-1927
▁부여	-1928
크라	-1929
▁휘	-1930
▁언론	-1931
트가	-1932
▁웹	-1933
레일	-1934
월에는	-1935
▁표준	-1936
감을	-1937
▁외국	-1938
▁정도로	-1939
▁사람들이	-1940
법을	-1941
소는	-1942
▁차례	-1943
월부터	-1944
▁가리킨다	-1945
드에	-1946
▁의하여	-1947
규모	-1948
▁마찬	-1949
▁자주	-1950
▁사무	-1951
▁친구	-1952
경을	-1953
▁요시	-1954
르의	-1955
▁펼	-1956
》(	-1957
▁메이	-1958
▁비행	-1959
점이	-1960
▁페르	-1961
베이	-1962
호는	-1963
▁고등학교	-1964
위가	-1965
▁이로	-1966
전의	-1967
▁국회의	-1968
▁않아	-1969
▁특정	-1970
스토	-1971
▁쉽	-1972
주에	-1973
▁레코	-1974
▁서울특별시	-1975
▁비롯한	-1976
지에서	-1977
▁육군	-1978
▁쌍	-1979
11	-1980
▁188	-1981
▁깨	-1982
▁패배	-1983
▁배치	-1984
나이	-1985
식은	-1986
▁경쟁	-1987
▁식민	-1988
사카	-1989
▁프로젝	-1990
▁대하여	-1991
▁바탕	-1992
▁씨	-1993
스티	-1994
▁아마	-1995
ion	-1996
▁소프트	-1997
불어	-1998
▁수용	-1999
▁나온	-2000
▁근처	-2001
▁서식	-2002
당은	-2003
▁밤	-2004
▁과정에서	-2005
▁공립	-2006
▁단체	-2007
▁전해	-2008
▁스스로	-2009
▁지상	-2010
▁1997	-2011
▁이사	-2012
▁괴	-2013
아의	-2014
정은	-2015
▁촉	-2016
가지로	-2017
전이	-2018
많은	-2019
▁주연으로	-2020
주시	-2021
하의	-2022
▁지역에서	-2023
장과	-2024
물의	-2025
▁위에	-2026
▁밝혀	-2027
▁쓴	-2028
▁핀	-2029
우는	-2030
▁추진	-2031
▁1970	-2032
주를	-2033
▁회사	-2034
▁거부	-2035
▁더불어	-2036
▁오스트리아	-2037
일의	-2038
▁참여하였다	-2039
초등학교	-2040
▁복귀	-2041
ch	-2042
▁오른	-2043
▁그대로	-2044
▁연기	-2045
▁홀	-2046
▁크로	-2047
▁지난	-2048
▁개혁	-2049
시코	-2050
▁강력	-2051
선은	-2052
▁주인	-2053
▁앤	-2054
▁불리	-2055
아가	-2056
톨릭	-2057
▁의미한다	-2058
▁런던	-2059
us	-2060
▁품	-2061
▁해결	-2062
▁스포츠	-2063
▁갖고	-2064
릭터	-2065
▁짧	-2066
▁1996	-2067
▁달러	-2068
▁자리	-2069
위는	-2070
동을	-2071
▁만나	-2072
지게	-2073
시즌	-2074
▁수록	-2075
▁가수	-2076
▁멀	-2077
▁이들	-2078
▁등과	-2079
▁주의	-2080
받았다	-2081
▁작가	-2082
▁속하는	-2083
▁해석	-2084
▁1995	-2085
▁것이었다	-2086
도와	-2087
위의	-2088
▁경우가	-2089
관으로	-2090
스키	-2091
▁"""	-2092
▁일어나	-2093
▁남부	-2094
》,	-2095
▁헬	-2096
없이	-2097
신을	-2098
.)	-2099
카와	-2100
▁선수로	-2101
▁습	-2102
60	-2103
-2	-2104
▁사라	-2105
▁작용	-2106
▁가져	-2107
▁빛	-2108
et	-2109
전은	-2110
이기	-2111
▁·	-2112
▁도착	-2113
▁지진	-2114
▁하이	-2115
▁법률	-2116
군과	-2117
▁기초	-2118
한다고	-2119
▁초등학교	-2120
라스	-2121
행을	-2122
(""	-2123
▁가르	-2124
▁바뀌	-2125
▁나오	-2126
력은	-2127
▁왕국	-2128
▁않다	-2129
되기도	-2130
▁디자인	-2131
▁단순	-2132
이어	-2133
▁겪	-2134
졌고	-2135
▁많다	-2136
부로	-2137
되었는데	-2138
▁폐지	-2139
▁부정	-2140
로나	-2141
14	-2142
ol	-2143
▁캐릭터	-2144
▁제국의	-2145
▁먼저	-2146
러스	-2147
했다는	-2148
▁들어가	-2149
▁수많은	-2150
▁유명한	-2151
▁논란	-2152
▁1960	-2153
▁불교	-2154
▁인터넷	-2155
하기로	-2156
▁다음을	-2157
-0	-2158
▁생성	-2159
▁위험	-2160
.2	-2161
▁주도	-2162
간다	-2163
▁잇	-2164
▁공항	-2165
▁이주	-2166
▁상호	-2167
▁이외	-2168
▁기록했다	-2169
어나	-2170
▁꽃	-2171
▁통일	-2172
▁통치	-2173
구는	-2174
▁외교	-2175
▁알렉	-2176
▁관측	-2177
▁반란	-2178
il	-2179
▁동맹	-2180
▁맨	-2181
▁1994	-2182
▁상대로	-2183
▁근거	-2184
자에	-2185
▁있었고	-2186
▁자동차	-2187
▁브라질	-2188
라인	-2189
소년	-2190
형의	-2191
베르	-2192
▁의원	-2193
▁팀의	-2194
시를	-2195
▁그녀의	-2196
om	-2197
》()	-2198
▁비슷한	-2199
▁중간	-2200
▁투표	-2201
▁시행	-2202
▁목적으로	-2203
▁알고	-2204
▁해안	-2205
▁사용된다	-2206
▁나머지	-2207
▁삶	-2208
량이	-2209
▁것과	-2210
▁1992	-2211
▁체포	-2212
▁크리스	-2213
고를	-2214
주로	-2215
▁있으나	-2216
디어	-2217
▁살아	-2218
▁이야기	-2219
▁가능하다	-2220
13	-2221
▁보다	-2222
구가	-2223
▁정규	-2224
▁임시	-2225
수한	-2226
▁중단	-2227
▁불리는	-2228
▁지역을	-2229
▁다르	-2230
조는	-2231
화된	-2232
▁시도	-2233
▁스웨	-2234
▁초대	-2235
부에서	-2236
▁마찬가지로	-2237
▁남자	-2238
▁파견	-2239
기술	-2240
▁만에	-2241
버스	-2242
철도	-2243
▁아무	-2244
▁분포	-2245
▁제시	-2246
▁북쪽	-2247
▁묘사	-2248
습니다	-2249
하였는데	-2250
▁시기	-2251
인들이	-2252
하다가	-2253
▁훈련	-2254
▁상징	-2255
▁여름	-2256
▁발매되었다	-2257
▁남쪽	-2258
▁조각	-2259
17	-2260
▁때는	-2261
▁구성되어	-2262
▁영국의	-2263
▁준비	-2264
회사	-2265
▁다만	-2266
▁가톨릭	-2267
▁끝에	-2268
▁술	-2269
낸다	-2270
▁있기	-2271
멕시코	-2272
▁흡	-2273
▁하계	-2274
자리	-2275
▁놀	-2276
cm	-2277
량을	-2278
▁의하면	-2279
▁:	-2280
거리	-2281
▁떨어진	-2282
았고	-2283
함을	-2284
되었지만	-2285
만의	-2286
▁활용	-2287
웨어	-2288
정보	-2289
▁따른	-2290
화국의	-2291
▁존재한다	-2292
▁관련된	-2293
▁정부는	-2294
▁60	-2295
아시아	-2296
▁칠	-2297
▁경영	-2298
▁교수	-2299
화의	-2300
▁뇌	-2301
▁감소	-2302
시가	-2303
▁형태로	-2304
▁궤	-2305
▁스웨덴	-2306
▁1991	-2307
리트	-2308
하라	-2309
▁일을	-2310
▁황제	-2311
▁나무	-2312
▁조선민주주의	-2313
▁필리	-2314
▁바꾸	-2315
▁사용할	-2316
▁붕	-2317
년을	-2318
ra	-2319
크의	-2320
▁187	-2321
▁교회	-2322
▁방어	-2323
▁재판	-2324
▁사용한다	-2325
▁몬	-2326
부와	-2327
▁가능한	-2328
대와	-2329
미터	-2330
▁선수권	-2331
두고	-2332
▁혐	-2333
하이	-2334
선에서	-2335
였고	-2336
▁숨	-2337
였으며	-2338
40	-2339
▁규정	-2340
)·	-2341
▁몇몇	-2342
트리	-2343
▁억	-2344
촬영	-2345
▁처리	-2346
▁보유	-2347
▁벽	-2348
▁금지	-2349
▁제기	-2350
성으로	-2351
레일리아	-2352
▁여객	-2353
▁텔레비전	-2354
▁캠	-2355
▁귀족	-2356
▁떠나	-2357
▁간의	-2358
▁대해서	-2359
▁살해	-2360
▁그린	-2361
▁직후	-2362
▁대사	-2363
▁안정	-2364
▁위해서	-2365
▁있지	-2366
▁가정	-2367
▁노르	-2368
▁못한	-2369
▁체결	-2370
▁이루어진	-2371
로가	-2372
NA	-2373
티아	-2374
▁아카	-2375
▁좋아	-2376
▁낳	-2377
으면서	-2378
▁지적	-2379
▁회의	-2380
면을	-2381
속도로	-2382
▁이렇게	-2383
▁야마	-2384
▁얼마	-2385
력의	-2386
▁결성	-2387
점으로	-2388
▁나타나	-2389
지션	-2390
▁아시	-2391
▁등록	-2392
나가	-2393
▁대응	-2394
▁바르	-2395
▁천황	-2396
▁강원	-2397
▁당선	-2398
▁동생	-2399
▁싶	-2400
▁독일의	-2401
▁보존	-2402
국이	-2403
물이	-2404
▁즉위	-2405
▁시작하였다	-2406
▁합류	-2407
▁낮은	-2408
▁중에서	-2409
▁바다	-2410
▁달성	-2411
과학	-2412
니는	-2413
▁프랑스의	-2414
▁꾸	-2415
트워	-2416
인지	-2417
▁정치적	-2418
▁정착	-2419
조를	-2420
▁『	-2421
프는	-2422
▁70	-2423
디아	-2424
웨이	-2425
평양	-2426
ing	-2427
▁1993	-2428
▁유대	-2429
▁다루	-2430
▁대해서는	-2431
▁표시	-2432
작용	-2433
사회	-2434
당이	-2435
▁스테	-2436
▁십	-2437
▁전달	-2438
▁엔진	-2439
▁적이	-2440
사에서	-2441
.(	-2442
▁앙	-2443
▁여전히	-2444
▁내각	-2445
사업	-2446
▁보여주	-2447
자들의	-2448
오카	-2449
교회	-2450
롭게	-2451
▁전환	-2452
국은	-2453
▁승강장	-2454
계가	-2455
▁광주	-2456
▁이름이	-2457
▁공작	-2458
트에서	-2459
소에	-2460
▁벗	-2461
▁의견	-2462
▁필요한	-2463
▁발행	-2464
▁인근	-2465
안을	-2466
센터	-2467
왕의	-2468
▁시험	-2469
▁관계를	-2470
▁후쿠	-2471
▁강한	-2472
▁경기를	-2473
와는	-2474
▁취임	-2475
▁주인공	-2476
역으로	-2477
시키고	-2478
▁감독의	-2479
▁대표적인	-2480
▁다카	-2481
▁완성	-2482
▁개통	-2483
▁제거	-2484
▁스튜	-2485
▁동쪽	-2486
▁유일한	-2487
▁부문	-2488
▁보수	-2489
▁제작에	-2490
라우	-2491
)'	-2492
▁미국에서	-2493
▁쌓	-2494
▁못하고	-2495
▁곤	-2496
▁1988	-2497
▁둔	-2498
▁일어난	-2499
▁사진	-2500
전한	-2501
인들은	-2502
▁젊	-2503
▁문제를	-2504
▁계승	-2505
▁캘	-2506
▁포르투	-2507
▁종료	-2508
▁것도	-2509
려고	-2510
▁히로	-2511
▁해외	-2512
▁이슬	-2513
▁출생	-2514
▁반면	-2515
되자	-2516
▁관광	-2517
▁공급	-2518
▁성립	-2519
치로	-2520
▁곳에	-2521
▁혁명	-2522
▁X	-2523
▁록	-2524
▁슈퍼	-2525
▁지명	-2526
▁비디오	-2527
크라이나	-2528
▁지냈다	-2529
▁멕시코	-2530
▁서비스	-2531
▁대륙	-2532
▁문서	-2533
치의	-2534
체로	-2535
▁가까운	-2536
가로	-2537
과를	-2538
관의	-2539
▁스위스	-2540
▁아일랜드	-2541
▁인구는	-2542
▁프레	-2543
▁문제가	-2544
as	-2545
력으로	-2546
▁인식	-2547
▁촬영	-2548
학생	-2549
▁지하철	-2550
▁하루	-2551
▁수는	-2552
지털	-2553
▁안에	-2554
▁이스	-2555
러운	-2556
인트	-2557
▁사이에서	-2558
▁제주	-2559
▁충돌	-2560
▁만들었다	-2561
▁문학	-2562
▁옮겨	-2563
▁부모	-2564
시킨	-2565
▁너무	-2566
▁주목	-2567
▁번역	-2568
▁아내	-2569
▁일제	-2570
TV	-2571
▁구단	-2572
▁유니	-2573
메달을	-2574
연합	-2575
▁오스트레일리아	-2576
▁본래	-2577
▁집중	-2578
하에	-2579
▁1950	-2580
▁근무	-2581
▁영어	-2582
▁이집	-2583
권의	-2584
▁물론	-2585
▁밑	-2586
준다	-2587
▁이래	-2588
▁위치해	-2589
▁수비	-2590
▁인한	-2591
80	-2592
▁삼성	-2593
주교	-2594
크는	-2595
▁소개	-2596
▁둘러	-2597
어졌다	-2598
▁베르	-2599
적이고	-2600
▁허용	-2601
적으로는	-2602
▁센터	-2603
해졌다	-2604
세포	-2605
▁사람은	-2606
▁1989	-2607
인이다	-2608
▁계열	-2609
▁강조	-2610
▁즐	-2611
▁밴드	-2612
▁사용하여	-2613
로운	-2614
▁종합	-2615
했기	-2616
▁라디오	-2617
EFA	-2618
▁죄	-2619
▁승격	-2620
▁조성	-2621
로로	-2622
▁1945	-2623
▁아니다	-2624
▁읽	-2625
▁중의	-2626
▁미사	-2627
▁종목	-2628
▁빅	-2629
▁실제로	-2630
트에	-2631
▁서쪽	-2632
▁듣	-2633
▁나누	-2634
▁평화	-2635
▁왼	-2636
▁로스	-2637
당을	-2638
세에	-2639
점에서	-2640
▁굴	-2641
▁경우에는	-2642
족의	-2643
▁수가	-2644
나의	-2645
▁빨	-2646
프가	-2647
▁말을	-2648
▁관찰	-2649
년대에	-2650
▁사실을	-2651
▁m	-2652
내고	-2653
리포	-2654
▁주었다	-2655
산의	-2656
헝가	-2657
▁건너	-2658
▁기후	-2659
▁생물	-2660
▁우크라이나	-2661
가가	-2662
▁빼	-2663
▁벤	-2664
분을	-2665
승을	-2666
▁186	-2667
▁전략	-2668
▁상업	-2669
석을	-2670
론을	-2671
▁집단	-2672
원과	-2673
id	-2674
▁미래	-2675
계는	-2676
▁넘어	-2677
▁나중에	-2678
▁각종	-2679
▁경상남도	-2680
▁위치하고	-2681
▁촌	-2682
▁카를	-2683
▁UEFA	-2684
▁종종	-2685
조선	-2686
▁명예	-2687
▁이용하여	-2688
▁전반	-2689
▁인민	-2690
▁중화인민공화국	-2691
관에	-2692
체에	-2693
▁이슬람	-2694
▁경상북도	-2695
피아	-2696
차를	-2697
도시	-2698
량의	-2699
▁가는	-2700
▁최소	-2701
해를	-2702
▁감염	-2703
▁이번	-2704
▁썼	-2705
▁납	-2706
▁마련	-2707
▁일반적인	-2708
▁디지털	-2709
▁제작된	-2710
▁뒤에	-2711
▁사망하였다	-2712
▁가입	-2713
▁옆	-2714
▁왔다	-2715
▁값	-2716
.3	-2717
▁바탕으로	-2718
조가	-2719
역에서	-2720
과에	-2721
▁저항	-2722
▁르	-2723
▁위협	-2724
▁사회적	-2725
▁하기	-2726
▁정부의	-2727
▁연장	-2728
▁부른다	-2729
▁받아들	-2730
▁중국의	-2731
분에	-2732
▁이후에	-2733
▁뒷	-2734
전으로	-2735
▁대회에서	-2736
▁통하여	-2737
▁배경	-2738
▁발사	-2739
▁무렵	-2740
보다는	-2741
▁한국의	-2742
▁북부	-2743
역에	-2744
▁윌리	-2745
▁주는	-2746
▁오사카	-2747
▁적극	-2748
▁뿐만	-2749
계에서	-2750
지도	-2751
▁간주	-2752
▁제도	-2753
▁건강	-2754
▁몽골	-2755
▁기록을	-2756
만에	-2757
은행	-2758
▁출연하였고	-2759
▁오르	-2760
▁전시	-2761
▁기존의	-2762
세기에	-2763
사이	-2764
.0	-2765
▁해당한다	-2766
▁성격	-2767
나라의	-2768
백질	-2769
자에게	-2770
드와	-2771
▁만들어진	-2772
▁사람들은	-2773
화에	-2774
▁내부	-2775
문화재	-2776
▁노력	-2777
신의	-2778
권이	-2779
▁갖추	-2780
기업	-2781
류의	-2782
▁끼	-2783
호선	-2784
▁네트워	-2785
▁동료	-2786
▁충분	-2787
▁기능을	-2788
▁판단	-2789
이던	-2790
▁만드는	-2791
도우	-2792
▁신경	-2793
▁증거	-2794
▁사람을	-2795
▁최고의	-2796
소로	-2797
졌으며	-2798
▁에이	-2799
▁파이	-2800
▁베네	-2801
ac	-2802
▁구조를	-2803
비가	-2804
▁확보	-2805
▁80	-2806
▁스코	-2807
▁점차	-2808
▁일이	-2809
상과	-2810
▁사회주의	-2811
파의	-2812
생활	-2813
▁척	-2814
▁펜	-2815
▁포르투갈	-2816
전쟁	-2817
▁사용되는	-2818
▁신문	-2819
월까지	-2820
▁친일	-2821
▁전투에서	-2822
▁이루어져	-2823
▁타이틀	-2824
▁작성	-2825
▁비밀	-2826
▁그려	-2827
상에서	-2828
▁민간	-2829
▁그곳	-2830
▁불러	-2831
리히	-2832
사인	-2833
amp	-2834
▁그해	-2835
▁합병	-2836
▁해군	-2837
▁홍콩	-2838
▁정리	-2839
▁측정	-2840
▁확대	-2841
주가	-2842
▁남북	-2843
기고	-2844
▁침공	-2845
▁미술	-2846
▁생활을	-2847
▁KBS	-2848
▁장애	-2849
▁재직	-2850
▁실행	-2851
년과	-2852
▁표기	-2853
▁포지션	-2854
▁붕괴	-2855
▁외에도	-2856
그룹	-2857
▁있었지만	-2858
리어	-2859
▁채택	-2860
▁출발	-2861
▁주장했다	-2862
▁녹음	-2863
▁끊	-2864
하려는	-2865
종이	-2866
라노	-2867
▁유로	-2868
▁쉽게	-2869
▁항상	-2870
▁던	-2871
▁범죄	-2872
▁계산	-2873
▁사령	-2874
▁오후	-2875
실을	-2876
물로	-2877
교의	-2878
▁젊은	-2879
▁시기에	-2880
▁승리를	-2881
일은	-2882
▁되었으며	-2883
▁관심을	-2884
▁제외한	-2885
▁년	-2886
▁맹	-2887
▁입학	-2888
▁유형	-2889
고로	-2890
역은	-2891
서로	-2892
25	-2893
▁알렉산	-2894
메이	-2895
▁국방	-2896
리기	-2897
▁뮤직	-2898
▁강력한	-2899
▁남편	-2900
▁보도	-2901
▁사례	-2902
량은	-2903
화는	-2904
▁의사	-2905
▁자본	-2906
끄는	-2907
밖에	-2908
▁아우	-2909
▁객	-2910
▁멜	-2911
▁그렇	-2912
▁농업	-2913
▁1987	-2914
學校	-2915
▁책임	-2916
로서의	-2917
호가	-2918
▁피아	-2919
났으며	-2920
▁방식으로	-2921
력과	-2922
▁자리를	-2923
았으며	-2924
관리	-2925
mm	-2926
하다고	-2927
▁제정	-2928
▁수립	-2929
대에서	-2930
70	-2931
▁부근	-2932
의로	-2933
▁튀	-2934
▁옹	-2935
▁내에서	-2936
▁집합	-2937
▁대규모	-2938
점에	-2939
▁공격을	-2940
▁바람	-2941
개를	-2942
▁시대의	-2943
드에서	-2944
▁자신을	-2945
▁전라남도	-2946
▁비용	-2947
▁남동	-2948
▁교체	-2949
▁정식	-2950
▁오스	-2951
▁경향	-2952
시로	-2953
라엘	-2954
▁마이크로	-2955
▁시작되었다	-2956
▁회복	-2957
▁균	-2958
▁겨울	-2959
▁뒤를	-2960
▁꼬	-2961
▁보면	-2962
력에	-2963
▁스토	-2964
까지의	-2965
▁윌리엄	-2966
이와	-2967
▁수입	-2968
▁그래서	-2969
▁폰	-2970
▁정보를	-2971
▁경우도	-2972
▁안전	-2973
▁계약을	-2974
▁고양	-2975
▁동일	-2976
리스트	-2977
▁1986	-2978
▁아키	-2979
▁을	-2980
라비아	-2981
▁오브	-2982
▁남성	-2983
▁그것은	-2984
트와	-2985
리포니아	-2986
▁쪽	-2987
▁여기서	-2988
▁장기	-2989
▁앞두고	-2990
문학	-2991
떻게	-2992
단으로	-2993
▁편집	-2994
니스	-2995
▁구축	-2996
▁보이	-2997
국을	-2998
▁등에서	-2999
▁만화	-3000
▁무역	-3001
▁불과	-3002
로스	-3003
계로	-3004
▁케이	-3005
▁매년	-3006
▁여행	-3007
▁냉	-3008
라가	-3009
▁혜	-3010
▁공공	-3011
임스	-3012
산업	-3013
▁올랐다	-3014
▁셀	-3015
요일	-3016
▁모스크	-3017
▁게이	-3018
법원	-3019
당에	-3020
▁컬	-3021
▁정상	-3022
▁흰	-3023
설을	-3024
당한	-3025
▁시장	-3026
▁등은	-3027
▁유리	-3028
민족	-3029
자들을	-3030
▁2022	-3031
▁않을	-3032
▁받는	-3033
경제	-3034
개발	-3035
다른	-3036
ur	-3037
에게는	-3038
▁얼굴	-3039
▁1984	-3040
▁없어	-3041
▁한다는	-3042
사령	-3043
▁연극	-3044
od	-3045
▁원자	-3046
▁국왕	-3047
라운드	-3048
▁측면	-3049
미널	-3050
▁한다고	-3051
▁요리	-3052
▁지역은	-3053
▁스튜디오	-3054
▁왔	-3055
▁제목	-3056
세이	-3057
▁전개	-3058
.4	-3059
▁32	-3060
비는	-3061
유럽	-3062
명한	-3063
신이	-3064
▁동부	-3065
사키	-3066
문이	-3067
르타	-3068
자이다	-3069
▁이전에	-3070
▁엘리	-3071
어와	-3072
▁떨어져	-3073
다이	-3074
▁인간의	-3075
▁밖에	-3076
▁단백질	-3077
-3	-3078
▁샌	-3079
▁흘	-3080
▁복잡	-3081
▁중학교	-3082
▁어떻게	-3083
▁헝가	-3084
키아	-3085
려는	-3086
▁조정	-3087
▁쇠	-3088
▁세르	-3089
네시아	-3090
되었을	-3091
▁이끄는	-3092
었는데	-3093
트라	-3094
▁류	-3095
▁과정을	-3096
▁인디	-3097
질을	-3098
이었고	-3099
▁알아	-3100
▁비교적	-3101
테인	-3102
로도	-3103
공항	-3104
하고자	-3105
▁전사	-3106
▁힘을	-3107
▁델	-3108
단체	-3109
▁대립	-3110
받아	-3111
▁도움을	-3112
▁불린다	-3113
적이다	-3114
▁화학	-3115
▁유엔	-3116
▁발표했다	-3117
율을	-3118
류를	-3119
▁35	-3120
▁개선	-3121
▁보이는	-3122
▁이스라엘	-3123
모리	-3124
학년	-3125
▁하면서	-3126
▁변호	-3127
인에	-3128
▁시대에	-3129
▁잠시	-3130
해의	-3131
같은	-3132
▁출신의	-3133
▁해체	-3134
사우	-3135
시대의	-3136
오프	-3137
▁훨	-3138
약을	-3139
▁인하여	-3140
▁아랍	-3141
▁재정	-3142
▁쓰인다	-3143
소에서	-3144
▁원칙	-3145
▁당시의	-3146
제에	-3147
▁태평양	-3148
▁캘리포니아	-3149
▁1985	-3150
▁다음은	-3151
▁해방	-3152
중학교	-3153
▁핀란드	-3154
▁섭	-3155
한국	-3156
▁나폴	-3157
구로	-3158
▁수정	-3159
까지는	-3160
▁훨씬	-3161
▁인수	-3162
▁갖춘	-3163
▁고구	-3164
▁서부	-3165
▁수학	-3166
인들의	-3167
▁하게	-3168
레이션	-3169
▁사람의	-3170
티브	-3171
▁사후	-3172
었지만	-3173
▁회원	-3174
버트	-3175
▁t	-3176
타이	-3177
▁다섯	-3178
▁구성된	-3179
ot	-3180
품을	-3181
▁편입	-3182
ad	-3183
▁초반	-3184
▁공유	-3185
데미	-3186
종은	-3187
▁참석	-3188
▁세운	-3189
▁짓	-3190
▁마드리	-3191
▁대상으로	-3192
os	-3193
래프트	-3194
▁90	-3195
▁설정	-3196
▁불가능	-3197
영화	-3198
▁득점	-3199
면의	-3200
.1	-3201
▁헨	-3202
▁신라	-3203
시와	-3204
▁사실상	-3205
대전	-3206
▁에스	-3207
어도	-3208
▁개정	-3209
자치	-3210
▁이란	-3211
▁가리키는	-3212
▁귀국	-3213
',	-3214
▁가능성이	-3215
▁고용	-3216
▁특수	-3217
▁통한	-3218
▁태어난	-3219
▁채널	-3220
동차	-3221
▁형태의	-3222
▁있었으며	-3223
▁아름	-3224
도에서	-3225
23	-3226
▁대형	-3227
▁윈도우	-3228
▁신설	-3229
하려고	-3230
▁뛰어난	-3231
▁중반	-3232
었으나	-3233
용으로	-3234
즈의	-3235
▁인사	-3236
▁차지했다	-3237
포르	-3238
▁폭발	-3239
바르	-3240
▁고전	-3241
▁죽은	-3242
▁가격	-3243
▁/	-3244
료를	-3245
▁시청	-3246
▁숲	-3247
▁유일	-3248
▁에너지	-3249
후의	-3250
▁했지만	-3251
리학	-3252
▁기계	-3253
▁잘못	-3254
하나	-3255
un	-3256
▁경기에	-3257
▁이것이	-3258
▁수출	-3259
▁개편	-3260
▁비난	-3261
시오	-3262
▁심각	-3263
▁시내	-3264
▁자체	-3265
▁콩	-3266
▁연맹	-3267
▁협력	-3268
▁본격	-3269
▁의해서	-3270
▁털	-3271
시킬	-3272
▁전혀	-3273
프의	-3274
ri	-3275
우리	-3276
▁울산	-3277
▁은행	-3278
▁기억	-3279
▁핵심	-3280
▁c	-3281
역의	-3282
▁조선민주주의인민공화국	-3283
법에	-3284
▁설치되어	-3285
90	-3286
▁예선	-3287
▁증명	-3288
ed	-3289
▁속에	-3290
▁속에서	-3291
▁사용되었다	-3292
▁봄	-3293
동의	-3294
▁현실	-3295
▁충청남도	-3296
24	-3297
▁이승	-3298
▁동일한	-3299
▁1982	-3300
수와	-3301
▁기획	-3302
▁임명되었다	-3303
▁플랫	-3304
▁북서	-3305
▁짧은	-3306
분의	-3307
▁팀은	-3308
▁파리	-3309
▁좀	-3310
▁블랙	-3311
▁인기를	-3312
▁예상	-3313
▁텍	-3314
.6	-3315
국에	-3316
▁국회의원	-3317
▁나뉘	-3318
▁가로	-3319
▁500	-3320
▁묻	-3321
▁필리핀	-3322
▁나서	-3323
▁홈런	-3324
장이다	-3325
를린	-3326
▁저장	-3327
▁우선	-3328
▁탑재	-3329
겠다고	-3330
▁행사	-3331
슨은	-3332
형이	-3333
▁대상	-3334
그는	-3335
▁역사상	-3336
▁물러	-3337
정책	-3338
▁둥	-3339
▁쉬	-3340
▁강원도	-3341
함에	-3342
▁도서	-3343
▁본선	-3344
지면서	-3345
받은	-3346
▁권한	-3347
지기	-3348
▁업무	-3349
▁선의	-3350
▁잎	-3351
▁후손	-3352
크를	-3353
▁검은	-3354
▁내용을	-3355
▁띠	-3356
▁암살	-3357
▁확정	-3358
▁때에는	-3359
▁조금	-3360
▁마리아	-3361
년이	-3362
.7	-3363
어져	-3364
도르	-3365
▁공부	-3366
▁식물	-3367
▁루이	-3368
▁나오는	-3369
▁오히	-3370
▁꿈	-3371
▁출마	-3372
다운	-3373
▁토론	-3374
군으로	-3375
테인먼	-3376
아버	-3377
▁블루	-3378
▁전차	-3379
▁평양	-3380
▁근대	-3381
▁모스크바	-3382
번의	-3383
산은	-3384
구와	-3385
▁1983	-3386
▁추정된다	-3387
서에	-3388
나와	-3389
았던	-3390
▁있었으나	-3391
▁덮	-3392
▁태어나	-3393
▁죽음	-3394
이라고도	-3395
▁시의	-3396
일보	-3397
▁카메	-3398
어들	-3399
▁시각	-3400
48	-3401
▁아나	-3402
▁통신	-3403
음에도	-3404
▁갈등	-3405
▁했고	-3406
▁말이다	-3407
▁고향	-3408
▁기반으로	-3409
틀랜드	-3410
경에	-3411
▁선고	-3412
▁외에	-3413
▁적은	-3414
▁세계에서	-3415
▁구체	-3416
▁정부가	-3417
▁덴마	-3418
터테인먼	-3419
▁교토	-3420
▁생존	-3421
이었으나	-3422
▁답	-3423
▁뿌	-3424
▁마사	-3425
▁일종	-3426
▁북동	-3427
▁발생한	-3428
▁오랜	-3429
▁위치한다	-3430
▁정복	-3431
붉은	-3432
▁도움	-3433
▁사는	-3434
▁프로듀	-3435
▁나카	-3436
▁높이	-3437
권에	-3438
▁있었는데	-3439
▁부인	-3440
▁찰	-3441
▁편성	-3442
슈타	-3443
▁타고	-3444
라고도	-3445
▁발견된다	-3446
▁반복	-3447
▁시간이	-3448
헨티	-3449
▁베이징	-3450
▁되지	-3451
▁등장하는	-3452
법의	-3453
▁엑	-3454
▁라틴	-3455
주와	-3456
▁설치되었던	-3457
▁수여	-3458
▁하는데	-3459
권은	-3460
▁국가의	-3461
▁중화민	-3462
▁보급	-3463
▁고등	-3464
▁없고	-3465
▁내에	-3466
세계	-3467
▁노예	-3468
▁고정	-3469
하다는	-3470
▁결과를	-3471
주에서	-3472
▁유도	-3473
▁옷	-3474
▁넓은	-3475
▁단일	-3476
워드	-3477
점은	-3478
▁도달	-3479
수에	-3480
가에	-3481
차례	-3482
▁항복	-3483
케이	-3484
스럽	-3485
▁정도의	-3486
▁되면서	-3487
.8	-3488
ent	-3489
▁관심	-3490
▁MBC	-3491
▁통제	-3492
▁형식	-3493
일이	-3494
▁아주	-3495
▁이끌고	-3496
▁구별	-3497
▁투자	-3498
▁숫	-3499
▁거절	-3500
▁동계	-3501
▁에드	-3502
음악	-3503
해진	-3504
▁소프트웨어	-3505
▁그에	-3506
▁버스	-3507
▁플랫폼	-3508
▁원정	-3509
▁브랜드	-3510
▁1979	-3511
싱턴	-3512
▁거대한	-3513
▁춘	-3514
▁욕	-3515
▁했으나	-3516
▁포지션은	-3517
셔널	-3518
▁선거에서	-3519
▁보였다	-3520
▁아르헨티	-3521
▁열대	-3522
리우	-3523
초등학교는	-3524
대회	-3525
니어	-3526
▁얻었다	-3527
▁박사	-3528
▁카이	-3529
▁의료	-3530
색을	-3531
▁때에	-3532
유의	-3533
▁그에게	-3534
▁라이브	-3535
▁박물	-3536
일러	-3537
간에	-3538
▁앞서	-3539
▁창설	-3540
당했다	-3541
무원	-3542
▁추측	-3543
▁만큼	-3544
▁확실	-3545
▁판결	-3546
▁시즌을	-3547
▁선수이다	-3548
▁유명하다	-3549
마이	-3550
▁1972	-3551
▁방출	-3552
▁인터뷰	-3553
▁요새	-3554
▁메이저	-3555
▁형제	-3556
▁점에서	-3557
▁계급	-3558
자기	-3559
신은	-3560
▁문화재	-3561
▁투입	-3562
▁45	-3563
법은	-3564
▁오히려	-3565
베르크	-3566
▁에피	-3567
▁고구려	-3568
▁초등학교이다	-3569
▁세웠다	-3570
▁대항	-3571
일로	-3572
▁어렵	-3573
▁목적	-3574
▁1920	-3575
▁클래	-3576
▁제출	-3577
▁흔히	-3578
▁1981	-3579
▁트리	-3580
of	-3581
▁금융	-3582
▁주교	-3583
▁머물	-3584
▁잭	-3585
▁한때	-3586
역이	-3587
▁오래된	-3588
▁링	-3589
▁합의	-3590
▁1930	-3591
우고	-3592
▁만약	-3593
▁북아	-3594
▁무기	-3595
ig	-3596
▁원작	-3597
▁계획을	-3598
▁사용한	-3599
▁마침	-3600
▁역대	-3601
▁신앙	-3602
▁융	-3603
▁족	-3604
공업	-3605
▁찍	-3606
▁멸망	-3607
나미	-3608
로마	-3609
▁이후에는	-3610
▁캄	-3611
▁지원을	-3612
▁아카데미	-3613
▁나와	-3614
▁1973	-3615
▁저지	-3616
더라도	-3617
경의	-3618
▁듯	-3619
형은	-3620
▁현재까지	-3621
▁전쟁이	-3622
자들	-3623
92	-3624
▁됐다	-3625
시설	-3626
▁약간	-3627
리게	-3628
문의	-3629
▁탄생	-3630
▁차이가	-3631
▁2,	-3632
▁논쟁	-3633
기에는	-3634
▁하였고	-3635
리노	-3636
▁애플	-3637
▁남서	-3638
▁활발	-3639
▁맡고	-3640
▁생겨	-3641
▁터키	-3642
▁끝나	-3643
▁180	-3644
경찰	-3645
▁장착	-3646
▁상당히	-3647
물은	-3648
▁그것을	-3649
노동	-3650
받고	-3651
▁플로	-3652
▁세이	-3653
▁마쓰	-3654
타를	-3655
라크	-3656
"",	-3657
▁투수	-3658
▁살고	-3659
▁광고	-3660
▁머리	-3661
▁장악	-3662
▁300	-3663
▁보는	-3664
차로	-3665
▁무장	-3666
데스	-3667
▁지닌	-3668
▁러시아의	-3669
동이	-3670
▁대표팀	-3671
▁것처럼	-3672
▁사용하고	-3673
술을	-3674
▁포함되어	-3675
▁1940	-3676
▁시작한	-3677
료로	-3678
▁d	-3679
▁짐	-3680
▁개봉한	-3681
um	-3682
지며	-3683
보를	-3684
▁설립된	-3685
op	-3686
▁이민	-3687
▁185	-3688
명과	-3689
스러운	-3690
언을	-3691
만큼	-3692
서가	-3693
국민	-3694
안에	-3695
경기에	-3696
▁반영	-3697
국에서	-3698
▁식민지	-3699
미디	-3700
호의	-3701
▁절대	-3702
▁전쟁을	-3703
으로도	-3704
▁글로	-3705
▁p	-3706
키스탄	-3707
ia	-3708
익을	-3709
▁철학	-3710
교통	-3711
▁이야기를	-3712
이었으며	-3713
테르	-3714
▁금속	-3715
▁보냈다	-3716
▁점을	-3717
▁번째로	-3718
(18	-3719
쿠라	-3720
▁전용	-3721
▁스파	-3722
하마	-3723
▁이중	-3724
▁대비	-3725
▁첨	-3726
사건	-3727
중앙	-3728
▁동의	-3729
▁조합	-3730
▁강제	-3731
▁이유는	-3732
조에	-3733
▁일으켰	-3734
령을	-3735
▁비록	-3736
▁위해서는	-3737
화로	-3738
브리	-3739
▁인공	-3740
▁이른	-3741
▁1948	-3742
▁제임스	-3743
▁베를린	-3744
수록	-3745
예술	-3746
▁뽑	-3747
추어	-3748
▁요소	-3749
▁1974	-3750
▁전설	-3751
▁혼란	-3752
and	-3753
35	-3754
룬다	-3755
▁속한다	-3756
▁의회	-3757
▁데이비	-3758
▁취급	-3759
항공	-3760
렸고	-3761
▁비율	-3762
""(	-3763
▁전후	-3764
세와	-3765
재를	-3766
▁약속	-3767
▁처음에는	-3768
당과	-3769
▁팀이	-3770
▁이르는	-3771
증을	-3772
에게서	-3773
▁공산주의	-3774
▁되면	-3775
▁포기	-3776
판을	-3777
▁병사	-3778
▁통해서	-3779
▁양성	-3780
▁없다고	-3781
▁낭	-3782
▁산맥	-3783
니의	-3784
서의	-3785
자이	-3786
비의	-3787
▁오리	-3788
▁시간을	-3789
세대	-3790
▁받지	-3791
▁서양	-3792
화와	-3793
▁높아	-3794
▁해당하는	-3795
▁위의	-3796
▁문자	-3797
마트	-3798
뿐만	-3799
▁의존	-3800
45	-3801
▁하늘	-3802
년에서	-3803
▁했으며	-3804
▁방법을	-3805
▁철도역이다	-3806
▁장식	-3807
▁팀을	-3808
아이	-3809
▁논의	-3810
산이	-3811
▁만족	-3812
▁펠	-3813
현재	-3814
병을	-3815
석이	-3816
▁넘는	-3817
류가	-3818
▁공식적으로	-3819
협회	-3820
분이	-3821
▁때부터	-3822
▁국경	-3823
로드	-3824
▁않았고	-3825
▁삭	-3826
▁취득	-3827
▁빠르게	-3828
.”	-3829
마스	-3830
▁나이	-3831
▁스피	-3832
▁붙여	-3833
▁그러한	-3834
▁사망했다	-3835
▁오전	-3836
소프트	-3837
▁작전	-3838
▁사건을	-3839
▁시티	-3840
▁반발	-3841
▁건조	-3842
▁알게	-3843
격으로	-3844
▁하나는	-3845
▁작품을	-3846
지자	-3847
▁붉은	-3848
치에	-3849
드시	-3850
▁창립	-3851
지인	-3852
▁건립	-3853
▁흡수	-3854
▁무엇	-3855
▁Y	-3856
▁독자	-3857
▁뜻을	-3858
▁1976	-3859
▁유사한	-3860
제국	-3861
▁1963	-3862
안의	-3863
▁좁	-3864
리아의	-3865
▁일본에서	-3866
▁부상	-3867
▁공포	-3868
▁빠른	-3869
▁파일	-3870
▁워싱턴	-3871
▁잇는	-3872
르가	-3873
FC	-3874
▁다니	-3875
▁프로그램이다	-3876
▁청소년	-3877
▁부활	-3878
▁아시안	-3879
▁거래	-3880
리케	-3881
즈는	-3882
▁출입	-3883
▁1975	-3884
음이	-3885
▁주고	-3886
였으나	-3887
▁km	-3888
▁방향으로	-3889
▁1978	-3890
▁기자	-3891
▁카운	-3892
라를	-3893
▁쫓	-3894
▁1968	-3895
▁후에는	-3896
식에	-3897
지이다	-3898
▁율	-3899
▁경계	-3900
▁역을	-3901
▁지금의	-3902
▁아파	-3903
번째로	-3904
▁셰	-3905
단과	-3906
▁36	-3907
2,	-3908
▁한번	-3909
만은	-3910
98	-3911
▁부임	-3912
▁하드	-3913
▁수원	-3914
▁해서	-3915
▁건국	-3916
▁1971	-3917
보는	-3918
▁얻어	-3919
▁맛	-3920
▁스크	-3921
▁탈락	-3922
▁기사	-3923
▁모리	-3924
의회	-3925
▁원주	-3926
▁깊은	-3927
▁요한	-3928
▁이용해	-3929
▁명이	-3930
생의	-3931
▁오토	-3932
▁길이	-3933
▁군대를	-3934
▁종류의	-3935
▁행정구	-3936
▁33	-3937
▁개시	-3938
▁득표	-3939
▁영입	-3940
앤젤	-3941
형으로	-3942
▁불법	-3943
▁촌이다	-3944
▁이뤄	-3945
▁네트워크	-3946
▁아메리카	-3947
▁헤이	-3948
교를	-3949
▁1946	-3950
▁도망	-3951
▁분쟁	-3952
▁규칙	-3953
▁그런데	-3954
▁수집	-3955
선으로	-3956
▁명명	-3957
▁곳에서	-3958
▁도중	-3959
▁청년	-3960
▁주식	-3961
▁보조	-3962
▁기록한	-3963
▁서비스를	-3964
▁집행	-3965
▁오픈	-3966
▁호텔	-3967
▁라인	-3968
▁예측	-3969
▁구속	-3970
▁포위	-3971
▁운용	-3972
▁탈출	-3973
▁아침	-3974
▁듀	-3975
▁표면	-3976
(20	-3977
▁빠져	-3978
▁보장	-3979
▁자녀	-3980
기에서	-3981
▁1969	-3982
▁"19	-3983
소와	-3984
되면	-3985
에트	-3986
스리그	-3987
▁진화	-3988
iv	-3989
▁승인	-3990
누스	-3991
▁피해를	-3992
본을	-3993
▁청나라	-3994
▁모여	-3995
▁미드	-3996
▁38	-3997
▁이용한	-3998
▁온라인	-3999
▁롤	-4000
▁스코틀랜드	-4001
▁동남	-4002
▁중세	-4003
훗날	-4004
문은	-4005
지원	-4006
27	-4007
▁다르다	-4008
▁트레이	-4009
마의	-4010
아서	-4011
▁달라	-4012
▁천문	-4013
인민공화국의	-4014
▁공화	-4015
▁일부는	-4016
개가	-4017
시티	-4018
▁신인	-4019
생을	-4020
정으로	-4021
무라	-4022
시킨다	-4023
▁전라북도	-4024
화되어	-4025
▁피아노	-4026
ec	-4027
씨는	-4028
▁간단	-4029
▁수사	-4030
▁롯	-4031
▁운전	-4032
▁특별한	-4033
▁대략	-4034
▁해에	-4035
▁강의	-4036
99	-4037
▁보낸	-4038
ir	-4039
미야	-4040
)""	-4041
26	-4042
▁응용	-4043
나이티	-4044
▁거리	-4045
▁외부	-4046
▁이전의	-4047
▁이들의	-4048
▁활동했다	-4049
전문	-4050
'(	-4051
▁공통	-4052
▁총독	-4053
▁시작하여	-4054
▁인도네시아	-4055
저우	-4056
모를	-4057
▁하나님	-4058
▁전공	-4059
▁태풍	-4060
▁대부분은	-4061
nt	-4062
국가	-4063
▁진압	-4064
히는	-4065
▁1949	-4066
법이	-4067
▁발견된	-4068
▁로스앤젤	-4069
▁불안	-4070
▁진입	-4071
바라	-4072
▁아테	-4073
▁생긴	-4074
▁슬로	-4075
플레이	-4076
차가	-4077
에만	-4078
▁상륙	-4079
▁주둔	-4080
▁하면	-4081
▁은하	-4082
▁생명	-4083
▁출신으로	-4084
리적	-4085
▁했던	-4086
▁엔터테인먼	-4087
▁목표로	-4088
▁기술을	-4089
▁히데	-4090
▁이것을	-4091
전과	-4092
수이다	-4093
로그	-4094
통을	-4095
▁체계	-4096
▁말레이	-4097
▁뜻이	-4098
▁앞에	-4099
씨의	-4100
▁준우	-4101
▁돌아가	-4102
▁선수가	-4103
▁대학교에서	-4104
기까지	-4105
조합	-4106
산으로	-4107
조사	-4108
▁독특	-4109
▁총리	-4110
▁보아	-4111
▁평가를	-4112
▁역사적	-4113
화되었다	-4114
에르	-4115
▁것이며	-4116
▁역임했다	-4117
▁우려	-4118
세로	-4119
▁지키	-4120
▁백작	-4121
▁지식	-4122
▁유나이티	-4123
▁s	-4124
▁경기는	-4125
47	-4126
구에서	-4127
▁제대로	-4128
▁제외하고	-4129
▁이제	-4130
▁논란이	-4131
▁경성	-4132
▁위반	-4133
하였지만	-4134
▁말았다	-4135
▁어떠	-4136
▁인기	-4137
▁능력을	-4138
▁받게	-4139
▁상승	-4140
▁수송	-4141
▁사건이	-4142
▁존재하는	-4143
36	-4144
기압	-4145
▁세종	-4146
▁아들이	-4147
▁숭	-4148
▁겐	-4149
겠다	-4150
산에	-4151
▁중이다	-4152
▁성인	-4153
▁지어	-4154
▁내의	-4155
▁반드시	-4156
▁끝난	-4157
▁운동을	-4158
리즘	-4159
프를	-4160
CA	-4161
28	-4162
▁풍부	-4163
▁브리	-4164
▁한반	-4165
었다고	-4166
▁수상했다	-4167
▁신성	-4168
▁정책을	-4169
ag	-4170
▁장관	-4171
▁장면	-4172
▁소수	-4173
▁이탈리아의	-4174
▁각각의	-4175
▁늦	-4176
▁대공	-4177
▁가서	-4178
▁발표한	-4179
가타	-4180
▁플라	-4181
▁150	-4182
▁정확한	-4183
▁미디어	-4184
ation	-4185
▁프란	-4186
95	-4187
▁조절	-4188
▁사용되고	-4189
▁맞이	-4190
▁검찰	-4191
▁마지막으로	-4192
시에서	-4193
국으로	-4194
▁1977	-4195
▁제공한다	-4196
▁1964	-4197
▁벨기에	-4198
▁남은	-4199
▁행성	-4200
▁사태	-4201
▁자살	-4202
▁레코드에	-4203
▁않으며	-4204
▁틀	-4205
▁1962	-4206
▁만주	-4207
미는	-4208
보드	-4209
▁받았고	-4210
▁공을	-4211
▁양자	-4212
▁프리미	-4213
▁성적	-4214
▁나타내는	-4215
▁세력	-4216
▁써	-4217
▁갈라	-4218
재판	-4219
▁의무	-4220
▁지니	-4221
▁에도	-4222
▁농민	-4223
▁시작으로	-4224
세한	-4225
▁최다	-4226
▁점점	-4227
▁엄청	-4228
▁연관	-4229
▁꺾	-4230
▁타이완	-4231
▁꼭	-4232
▁전통적인	-4233
▁플레이오프	-4234
니아의	-4235
▁에피소	-4236
프레	-4237
▁차별	-4238
▁뜻한다	-4239
▁린	-4240
민주당	-4241
연맹	-4242
▁코로나	-4243
행위	-4244
▁사법	-4245
▁둘러싸	-4246
▁지붕	-4247
▁솔로	-4248
▁주어	-4249
▁이후로	-4250
배우	-4251
▁그와	-4252
라와	-4253
▁동성	-4254
▁그들이	-4255
em	-4256
해도	-4257
정희	-4258
▁지급	-4259
▁배출	-4260
▁포함하여	-4261
▁완료	-4262
▁다수의	-4263
▁경우는	-4264
여자	-4265
왕이	-4266
ut	-4267
▁태어났으며	-4268
▁전파	-4269
통신	-4270
▁파악	-4271
미를	-4272
▁지낸	-4273
▁소장	-4274
겠다는	-4275
▁나치	-4276
▁알려졌다	-4277
▁II	-4278
패를	-4279
▁동원	-4280
▁해양	-4281
▁되자	-4282
▁잡아	-4283
그러	-4284
▁문헌	-4285
▁작품은	-4286
▁국무	-4287
▁받을	-4288
▁향상	-4289
인도	-4290
▁해산	-4291
▁기대	-4292
▁시즌에	-4293
▁채용	-4294
▁트로	-4295
▁형태를	-4296
▁트랙	-4297
▁콘스탄	-4298
명에	-4299
▁활성	-4300
▁대기	-4301
▁베이스	-4302
▁상당한	-4303
주의를	-4304
적의	-4305
동으로	-4306
▁개신	-4307
▁왼쪽	-4308
터를	-4309
▁명확	-4310
물이다	-4311
▁웨스트	-4312
▁어떠한	-4313
프리	-4314
석은	-4315
▁감독을	-4316
▁계기로	-4317
났고	-4318
▁방사	-4319
▁치러	-4320
▁셋	-4321
▁모양의	-4322
기원전	-4323
▁인접	-4324
제와	-4325
▁대성	-4326
▁1967	-4327
▁효율	-4328
▁있음을	-4329
▁흉	-4330
▁오른쪽	-4331
▁출연하였다	-4332
▁보컬	-4333
축구	-4334
37	-4335
기간	-4336
▁맡아	-4337
▁LG	-4338
▁층	-4339
▁보관	-4340
론의	-4341
페이	-4342
▁신뢰	-4343
▁일찍	-4344
▁자신들의	-4345
▁컵	-4346
▁노부	-4347
터는	-4348
▁검사	-4349
▁뜻으로	-4350
▁학문	-4351
항을	-4352
▁목소	-4353
46	-4354
▁창조	-4355
▁포도	-4356
▁들어서	-4357
▁재건	-4358
리우스	-4359
부터는	-4360
▁제어	-4361
섰다	-4362
▁일정	-4363
▁실질	-4364
▁무덤	-4365
▁선교	-4366
▁고속	-4367
조직	-4368
▁코미디	-4369
▁조작	-4370
▁것이라는	-4371
▁교육을	-4372
격한	-4373
▁적절	-4374
▁학위를	-4375
▁없다는	-4376
▁선보	-4377
으니	-4378
▁천연	-4379
락을	-4380
▁때의	-4381
▁주택	-4382
▁빼앗	-4383
▁쓰는	-4384
▁감독이	-4385
▁복합	-4386
▁삼각	-4387
바로	-4388
oc	-4389
▁활동하였다	-4390
▁도시로	-4391
▁둘째	-4392
망을	-4393
▁경제적	-4394
▁교환	-4395
▁나는	-4396
▁느끼	-4397
들로부터	-4398
▁터널	-4399
▁지방의	-4400
▁마케	-4401
▁두었다	-4402
방을	-4403
)》	-4404
(15	-4405
▁동작	-4406
▁랭	-4407
▁일치	-4408
▁연출	-4409
▁세르비아	-4410
국제	-4411
티노	-4412
▁프로세	-4413
으로서의	-4414
프랑	-4415
▁분열	-4416
▁연구를	-4417
▁힐	-4418
상태	-4419
▁받는다	-4420
▁프로젝트	-4421
▁진보	-4422
▁소비에트	-4423
버그	-4424
선과	-4425
▁이집트	-4426
▁상품	-4427
▁마침내	-4428
▁조별	-4429
▁여기에	-4430
▁대통령이	-4431
▁요코	-4432
▁회전	-4433
▁400	-4434
평가	-4435
▁연재	-4436
▁음식	-4437
▁이루어졌다	-4438
▁글을	-4439
▁비례	-4440
▁썼다	-4441
▁변경되었다	-4442
▁육상	-4443
공사	-4444
▁예비	-4445
▁가졌다	-4446
▁세인트	-4447
들이다	-4448
▁질병	-4449
▁나타난다	-4450
산화	-4451
▁법칙	-4452
▁묶	-4453
고는	-4454
▁전철	-4455
크가	-4456
▁승진	-4457
▁거두었다	-4458
▁미야	-4459
주의의	-4460
미가	-4461
▁1966	-4462
▁도쿠	-4463
▁향해	-4464
네스	-4465
▁1965	-4466
없는	-4467
...	-4468
▁지냈	-4469
▁렌	-4470
▁벼	-4471
▁아들로	-4472
▁늘어	-4473
▁포함한다	-4474
94	-4475
▁장군	-4476
▁관계가	-4477
▁문제로	-4478
▁기록하였다	-4479
75	-4480
곡을	-4481
▁뉴스	-4482
▁소년	-4483
타르	-4484
▁빙	-4485
▁미군	-4486
공화국	-4487
SA	-4488
▁브루	-4489
임이	-4490
▁처형	-4491
im	-4492
▁홋	-4493
▁정차	-4494
▁그렇게	-4495
▁역은	-4496
▁임진	-4497
▁of	-4498
▁후속	-4499
▁레드	-4500
▁덧	-4501
38	-4502
▁롯데	-4503
▁페르시아	-4504
종을	-4505
시키기	-4506
▁성능	-4507
치아	-4508
미의	-4509
틀러	-4510
▁갔다	-4511
▁이성	-4512
▁면적은	-4513
▁에어	-4514
장인	-4515
생물	-4516
500	-4517
▁가을	-4518
▁성우	-4519
사관	-4520
연히	-4521
치와	-4522
▁쓸	-4523
▁신청	-4524
▁주관	-4525
▁발표하였다	-4526
▁탁	-4527
▁하였으나	-4528
▁무시	-4529
▁흘러	-4530
▁기록이	-4531
▁1961	-4532
데이	-4533
▁저작	-4534
▁올리	-4535
▁공개된	-4536
텐츠	-4537
▁음력	-4538
▁반대로	-4539
▁발견되었다	-4540
▁쥐	-4541
조판	-4542
▁특이	-4543
▁주장하였다	-4544
▁재배	-4545
▁차이	-4546
▁학습	-4547
석의	-4548
▁이후의	-4549
책을	-4550
▁현역	-4551
▁마리	-4552
▁분할	-4553
▁사운드	-4554
▁후기	-4555
▁승객	-4556
▁왕국의	-4557
▁소속으로	-4558
▁취소	-4559
▁리더	-4560
▁오페	-4561
32	-4562
▁좌우	-4563
▁체코	-4564
▁접촉	-4565
▁감독으로	-4566
경이	-4567
해가	-4568
동은	-4569
▁작업을	-4570
▁그레	-4571
▁없으며	-4572
▁분위	-4573
▁오랫	-4574
▁올려	-4575
▁합성	-4576
▁것이라	-4577
▁횡	-4578
▁오스만	-4579
▁의미를	-4580
▁등급	-4581
▁주전	-4582
요시	-4583
자들에게	-4584
카이도	-4585
파는	-4586
▁일부를	-4587
▁갖는	-4588
▁b	-4589
▁당시에는	-4590
▁띄	-4591
▁공군	-4592
96	-4593
▁아버지는	-4594
개혁	-4595
▁하나인	-4596
▁말에	-4597
▁소녀	-4598
▁훗날	-4599
레오	-4600
스케	-4601
조로	-4602
▁열렸다	-4603
▁후보로	-4604
▁바깥	-4605
▁하자	-4606
▁연대	-4607
▁성향	-4608
▁프로그램을	-4609
▁마치	-4610
▁무너	-4611
▁사람들의	-4612
▁민주당	-4613
▁단독	-4614
▁나이로	-4615
▁킹	-4616
▁함락	-4617
▁래	-4618
토의	-4619
고속도로	-4620
▁지내	-4621
▁속한	-4622
▁개막	-4623
▁후지	-4624
▁되며	-4625
▁음악을	-4626
▁아미	-4627
▁개입	-4628
▁출범	-4629
▁자극	-4630
▁중인	-4631
하였다고	-4632
거운	-4633
▁오랫동안	-4634
▁니콜	-4635
주었다	-4636
▁챔피언스리그	-4637
ow	-4638
▁1944	-4639
▁까	-4640
▁완전	-4641
복을	-4642
계획	-4643
금의	-4644
▁유기	-4645
▁심각한	-4646
▁하였으며	-4647
개로	-4648
▁시작된	-4649
▁발굴	-4650
고기	-4651
였지만	-4652
여서	-4653
▁작품이다	-4654
질이	-4655
▁방법으로	-4656
▁크고	-4657
▁아사	-4658
▁보안	-4659
현의	-4660
▁가나	-4661
범위	-4662
▁혼합	-4663
마르	-4664
천시	-4665
체육	-4666
▁희생	-4667
그라	-4668
▁바라	-4669
▁추천	-4670
리다	-4671
질랜드	-4672
산시	-4673
▁영화는	-4674
▁목록이다	-4675
▁국민의	-4676
름을	-4677
▁경우에	-4678
▁국회	-4679
▁이시	-4680
▁개최된	-4681
▁기원	-4682
▁새겨	-4683
자로서	-4684
이었지만	-4685
했었다	-4686
▁메시	-4687
▁실현	-4688
▁인종	-4689
▁버전	-4690
▁스티	-4691
▁로버트	-4692
▁1919	-4693
▁올랐	-4694
▁부분을	-4695
▁어린이	-4696
부인	-4697
▁시리아	-4698
마을	-4699
우주	-4700
토리	-4701
▁절반	-4702
▁방면	-4703
▁완공	-4704
▁킬	-4705
부장	-4706
▁DNA	-4707
▁인구의	-4708
메리	-4709
하였던	-4710
▁제공하는	-4711
97	-4712
▁테러	-4713
이센	-4714
지컬	-4715
▁규모의	-4716
▁부르는	-4717
▁시에	-4718
▁직업	-4719
▁변화를	-4720
▁혐의로	-4721
▁폐쇄	-4722
▁자이	-4723
▁마무	-4724
▁분명	-4725
▁원년	-4726
▁이하	-4727
▁처벌	-4728
▁꼽	-4729
▁로스앤젤레스	-4730
%)	-4731
▁행위	-4732
▁관련이	-4733
▁긍	-4734
▁누구	-4735
▁시위	-4736
▁받아들여	-4737
▁시카	-4738
▁나왔다	-4739
▁발발	-4740
고의	-4741
▁독특한	-4742
뮤니	-4743
▁지위를	-4744
▁상대적으로	-4745
자료	-4746
▁창단	-4747
진의	-4748
▁않게	-4749
▁트랜	-4750
(200	-4751
▁기울	-4752
▁사임	-4753
디션	-4754
진은	-4755
화한	-4756
레옹	-4757
▁대개	-4758
학에서	-4759
브라	-4760
▁출간	-4761
▁쳐	-4762
▁택	-4763
▁새롭게	-4764
타는	-4765
▁사냥	-4766
체와	-4767
▁모아	-4768
▁인지	-4769
▁"20	-4770
▁파라	-4771
▁입장을	-4772
▁시작한다	-4773
▁주장한다	-4774
▁충청북도	-4775
▁켄	-4776
▁크로아	-4777
표를	-4778
▁니시	-4779
안은	-4780
▁당초	-4781
인들을	-4782
▁연결하는	-4783
▁삽	-4784
▁침략	-4785
76	-4786
▁주지	-4787
론은	-4788
▁확립	-4789
지어	-4790
판이	-4791
▁김영	-4792
▁안에서	-4793
▁SBS	-4794
▁한정	-4795
▁역으로	-4796
▁지금까지	-4797
▁기회를	-4798
▁기둥	-4799
▁쓰고	-4800
93	-4801
카가	-4802
▁1941	-4803
각을	-4804
게임	-4805
▁후계	-4806
▁일어났다	-4807
에이	-4808
되었다고	-4809
▁섞	-4810
▁앉	-4811
입니다	-4812
▁소송	-4813
(),	-4814
▁사우	-4815
▁지시	-4816
▁사립	-4817
▁합격	-4818
▁합쳐	-4819
ay	-4820
당시	-4821
방의	-4822
▁카르	-4823
▁학술	-4824
▁참전	-4825
▁그때	-4826
해져	-4827
▁통산	-4828
▁화물	-4829
터리	-4830
▁콘서	-4831
▁카운티	-4832
▁길을	-4833
▁나뉜	-4834
들에서	-4835
▁뜻하는	-4836
터가	-4837
▁지역으로	-4838
진이	-4839
▁부상을	-4840
▁철수	-4841
내에	-4842
▁단계	-4843
▁국제공항	-4844
▁훌	-4845
선수	-4846
▁조종	-4847
▁역이다	-4848
▁선정되었다	-4849
색의	-4850
니가	-4851
▁터미널	-4852
치게	-4853
▁얻은	-4854
▁정기	-4855
▁상태로	-4856
라며	-4857
정치	-4858
사이트	-4859
경은	-4860
▁1947	-4861
▁구현	-4862
▁가지는	-4863
▁이르러	-4864
▁만들어졌다	-4865
▁지켜	-4866
▁김일	-4867
▁유행	-4868
▁FA	-4869
▁고문	-4870
31	-4871
-19	-4872
▁인구가	-4873
44	-4874
▁임대	-4875
▁댄	-4876
▁갔	-4877
▁음반은	-4878
▁발생하는	-4879
▁상황에서	-4880
강점	-4881
시험	-4882
▁개발한	-4883
▁뉴질랜드	-4884
령이	-4885
▁가스	-4886
▁언제	-4887
▁금메달을	-4888
▁노출	-4889
▁어려운	-4890
▁사람들을	-4891
▁유일하게	-4892
▁테이	-4893
▁여겨진다	-4894
▁근본	-4895
▁변환	-4896
▁행동을	-4897
▁의혹	-4898
▁헤르	-4899
▁이들을	-4900
▁1958	-4901
▁독립운동	-4902
▁펼쳐	-4903
▁돕	-4904
다면	-4905
▁부대	-4906
▁유럽의	-4907
▁군주	-4908
▁장치	-4909
공산	-4910
▁스페인의	-4911
▁장교	-4912
▁공업	-4913
▁부하	-4914
의원	-4915
▁내용은	-4916
▁많아	-4917
▁사망한	-4918
▁침입	-4919
하지는	-4920
▁망명	-4921
▁지상역이다	-4922
▁뚜	-4923
스럽게	-4924
비치	-4925
함과	-4926
▁스미	-4927
▁덴마크	-4928
68	-4929
▁예수	-4930
▁성적을	-4931
▁졸업하고	-4932
▁골을	-4933
▁다르게	-4934
▁하에	-4935
박물	-4936
▁관여	-4937
건을	-4938
▁나폴레옹	-4939
▁국도	-4940
▁명을	-4941
▁반도	-4942
OS	-4943
▁지은	-4944
▁보았다	-4945
)’	-4946
▁일으키	-4947
었기	-4948
련의	-4949
▁하위	-4950
▁앞에서	-4951
린은	-4952
▁가담	-4953
▁활동하고	-4954
▁강등	-4955
▁1939	-4956
▁고유	-4957
▁놓고	-4958
▁전형	-4959
▁대리	-4960
▁벌어	-4961
▁성을	-4962
▁1956	-4963
kg	-4964
▁마이클	-4965
재로	-4966
차원	-4967
천군	-4968
층의	-4969
주의적	-4970
▁제작한	-4971
▁상위	-4972
▁등장한다	-4973
종으로	-4974
▁만들고	-4975
▁부산광역시	-4976
▁닥	-4977
슬러	-4978
▁서버	-4979
▁로켓	-4980
파를	-4981
▁쓰이는	-4982
관과	-4983
▁기상	-4984
사무	-4985
▁다스	-4986
▁일본에	-4987
▁마이크로소프트	-4988
▁37	-4989
▁동아	-4990
▁도와	-4991
33	-4992
▁가치가	-4993
강의	-4994
성군	-4995
리나	-4996
투스	-4997
▁간행	-4998
▁효과를	-4999
역과	-5000
▁개신교	-5001
▁받았으며	-5002
기념	-5003
▁추구	-5004
▁출장	-5005
▁연구에	-5006
론이	-5007
▁불렀다	-5008
▁34	-5009
▁베스트	-5010
▁다소	-5011
양을	-5012
▁대표하는	-5013
스포	-5014
▁포함하고	-5015
씨가	-5016
▁어디	-5017
▁정지	-5018
▁세계의	-5019
▁항성	-5020
▁공헌	-5021
▁중에는	-5022
▁헝가리	-5023
▁일제강점	-5024
안이	-5025
일과	-5026
▁등판	-5027
▁정비	-5028
라이언	-5029
▁존재하지	-5030
▁전면	-5031
티오	-5032
▁설득	-5033
▁해야	-5034
▁가문의	-5035
▁노벨	-5036
고가	-5037
▁스프	-5038
자유	-5039
색으로	-5040
▁아티	-5041
▁어깨	-5042
▁두려	-5043
▁왕실	-5044
▁일시	-5045
▁대회에	-5046
정과	-5047
▁의심	-5048
▁내렸다	-5049
▁반란을	-5050
▁필요가	-5051
무늬	-5052
▁수영	-5053
▁전까지	-5054
▁아라	-5055
▁광범위	-5056
▁이름의	-5057
▁1954	-5058
▁거듭	-5059
▁신호	-5060
▁여객철도	-5061
ce	-5062
관계	-5063
어야	-5064
리그의	-5065
▁대부분이	-5066
양의	-5067
▁멀리	-5068
▁적합	-5069
▁마르크	-5070
동생	-5071
▁알파	-5072
▁형사	-5073
▁노래를	-5074
▁완전한	-5075
▁팽	-5076
동맹	-5077
▁한국에서	-5078
니즘	-5079
동과	-5080
▁따로	-5081
▁돈을	-5082
▁나아가	-5083
류는	-5084
▁아스	-5085
로와	-5086
루가	-5087
▁계통	-5088
▁데에	-5089
▁의식	-5090
▁미드필	-5091
▁1000	-5092
▁편찬	-5093
▁샤를	-5094
물에	-5095
▁그레이	-5096
▁사실이	-5097
▁준다	-5098
▁후원	-5099
▁바닥	-5100
▁헨리	-5101
▁팝	-5102
되었다가	-5103
시스	-5104
▁스마트	-5105
고등	-5106
▁보병	-5107
▁도시의	-5108
▁레오	-5109
▁특정한	-5110
▁자리잡	-5111
▁지금은	-5112
▁인쇄	-5113
▁벗어나	-5114
▁긍정	-5115
▁않지만	-5116
▁영상	-5117
▁설치된	-5118
대신	-5119
▁메인	-5120
▁보여준다	-5121
▁중화민국	-5122
▁뜨	-5123
▁듣고	-5124
▁변형	-5125
왜란	-5126
터의	-5127
▁다수	-5128
▁들고	-5129
▁PC	-5130
▁고속도로	-5131
되는데	-5132
▁1952	-5133
▁계곡	-5134
▁위성	-5135
토니	-5136
▁보유하고	-5137
▁가슴	-5138
▁올렸다	-5139
▁이루고	-5140
▁사업을	-5141
▁나타낸다	-5142
족이	-5143
▁인권	-5144
관에서	-5145
88	-5146
▁제일	-5147
▁느낌	-5148
총독	-5149
함이	-5150
르기	-5151
▁소방	-5152
▁특징이다	-5153
우수	-5154
▁55	-5155
▁주최	-5156
▁접한다	-5157
65	-5158
▁미니	-5159
보고	-5160
▁전주	-5161
었을	-5162
▁밝히	-5163
▁현상	-5164
▁대한민국에서는	-5165
▁필요하다	-5166
▁저녁	-5167
▁있었기	-5168
도서	-5169
리며	-5170
▁시스템을	-5171
64	-5172
년경	-5173
대장	-5174
▁진행되었다	-5175
▁1959	-5176
▁미드필더	-5177
에서만	-5178
대중	-5179
▁일부가	-5180
오스	-5181
차는	-5182
▁활약을	-5183
▁CD	-5184
▁관료	-5185
▁맡은	-5186
▁엄청난	-5187
▁올림픽에	-5188
치지	-5189
▁죽었다	-5190
ap	-5191
▁경주	-5192
▁선박	-5193
▁잡지	-5194
▁나타내	-5195
BA	-5196
행정	-5197
우의	-5198
▁SK	-5199
하므로	-5200
▁편이다	-5201
▁투쟁	-5202
▁세력을	-5203
▁몰아	-5204
▁사용된	-5205
▁확률	-5206
사단	-5207
▁대통령은	-5208
▁닌	-5209
명이다	-5210
▁지도자	-5211
▁일어나는	-5212
▁스카	-5213
▁테스트	-5214
▁프리미어	-5215
.9	-5216
▁분노	-5217
▁통계	-5218
▁나타났다	-5219
▁도요	-5220
주고	-5221
▁전부	-5222
▁소멸	-5223
85	-5224
▁장남	-5225
▁챔피언십	-5226
▁공연을	-5227
▁갤	-5228
▁나타나는	-5229
▁코드	-5230
▁캔	-5231
파가	-5232
77	-5233
▁신체	-5234
▁홍보	-5235
▁떠났다	-5236
▁주어진	-5237
인에게	-5238
▁단지	-5239
▁기다	-5240
▁재개	-5241
차전	-5242
▁예정이다	-5243
▁수요	-5244
▁임진왜란	-5245
▁이혼	-5246
타마	-5247
▁번의	-5248
▁신학	-5249
▁지지를	-5250
되어야	-5251
▁1953	-5252
29	-5253
혁명	-5254
▁바르셀	-5255
▁부분이	-5256
실은	-5257
▁석유	-5258
▁즉시	-5259
▁높다	-5260
▁법정	-5261
▁자격	-5262
▁해도	-5263
▁박정희	-5264
비스	-5265
34	-5266
퍼드	-5267
가인	-5268
▁돼	-5269
왕은	-5270
▁겹	-5271
▁샘	-5272
슨의	-5273
▁남쪽으로	-5274
▁부친	-5275
▁정체	-5276
▁스키	-5277
듯이	-5278
▁프로이센	-5279
네이	-5280
별로	-5281
▁서울대학교	-5282
▁페이	-5283
▁바뀌었다	-5284
영은	-5285
드라	-5286
▁켈	-5287
▁돌아와	-5288
▁도시이다	-5289
▁텍사	-5290
이므로	-5291
▁끌어	-5292
▁부담	-5293
▁집권	-5294
▁곳으로	-5295
▁스탠	-5296
▁유치	-5297
▁유형문화재	-5298
가이다	-5299
체스터	-5300
▁있었다고	-5301
▁이기	-5302
키가	-5303
연을	-5304
▁못하는	-5305
▁나누어	-5306
▁발탁	-5307
아는	-5308
▁왕조	-5309
법으로	-5310
▁커뮤니	-5311
ul	-5312
▁가게	-5313
▁그곳에서	-5314
학자들은	-5315
▁대통령의	-5316
기록	-5317
▁주장을	-5318
▁저술	-5319
▁프로그래	-5320
구이다	-5321
▁지속적으로	-5322
마는	-5323
백만	-5324
▁역사를	-5325
▁위로	-5326
▁메이지	-5327
직에	-5328
▁운영하고	-5329
머스	-5330
▁개조	-5331
▁벌어진	-5332
▁대체로	-5333
▁소련의	-5334
▁레알	-5335
▁정교	-5336
▁총선	-5337
▁뮤지컬	-5338
독립	-5339
▁매일	-5340
▁아르헨티나	-5341
▁부분은	-5342
▁파트	-5343
▁눈에	-5344
▁이로써	-5345
사람	-5346
▁학살	-5347
▁중부	-5348
▁징역	-5349
▁코르	-5350
▁로마의	-5351
▁1942	-5352
▁드라이	-5353
▁1955	-5354
되지만	-5355
▁미국과	-5356
코는	-5357
86	-5358
▁일정한	-5359
▁참여했다	-5360
▁참가했다	-5361
▁개설	-5362
▁로봇	-5363
▁자리에	-5364
▁Z	-5365
▁탈퇴	-5366
▁내용이	-5367
▁방정	-5368
▁권력을	-5369
▁천주교	-5370
▁사용했다	-5371
례를	-5372
▁이끌었다	-5373
영의	-5374
▁무게	-5375
▁갖추고	-5376
▁방해	-5377
키의	-5378
무부	-5379
▁기소	-5380
루는	-5381
▁명나라	-5382
▁정권	-5383
▁단편	-5384
▁영웅	-5385
▁원주민	-5386
카의	-5387
제에서	-5388
에른	-5389
▁벡	-5390
▁선전	-5391
▁이후에도	-5392
쿠스	-5393
▁기록은	-5394
▁이룬다	-5395
▁개체	-5396
▁구입	-5397
The	-5398
▁않으면	-5399
▁방지	-5400
▁한나라	-5401
스트로	-5402
질의	-5403
▁단어	-5404
▁구매	-5405
▁인용	-5406
▁시나	-5407
▁영업	-5408
▁종사	-5409
▁상황을	-5410
▁북쪽으로	-5411
▁공중	-5412
▁토지	-5413
니스탄	-5414
▁1943	-5415
▁굳	-5416
▁점이	-5417
▁만든다	-5418
위와	-5419
▁75	-5420
▁빚	-5421
▁구역	-5422
▁책임을	-5423
▁명칭은	-5424
▁군의	-5425
▁릴	-5426
▁장비	-5427
▁평안	-5428
▁픽	-5429
▁후임	-5430
▁나뉜다	-5431
▁프라	-5432
▁문제에	-5433
▁힌	-5434
▁다다	-5435
▁싱가	-5436
▁얻을	-5437
▁못하였다	-5438
▁문을	-5439
▁초에	-5440
89	-5441
▁사단	-5442
▁전신	-5443
▁명령을	-5444
39	-5445
는지	-5446
강에	-5447
포를	-5448
▁쿠데	-5449
▁공사	-5450
▁속해	-5451
▁한글	-5452
▁말하는	-5453
▁부진	-5454
▁전쟁에	-5455
▁밀려	-5456
▁작동	-5457
▁호소	-5458
▁밝혀졌다	-5459
▁묵	-5460
사랑	-5461
천만	-5462
▁네이	-5463
받는	-5464
▁곡을	-5465
▁다운	-5466
▁연결되어	-5467
▁맞아	-5468
▁춤	-5469
▁다음의	-5470
▁시상	-5471
야의	-5472
▁복잡한	-5473
▁삼국	-5474
▁올림픽에서	-5475
▁상속	-5476
▁오직	-5477
타운	-5478
▁가진다	-5479
레인	-5480
▁성공을	-5481
▁작품으로	-5482
▁그것이	-5483
▁근처에	-5484
▁병합	-5485
▁다음날	-5486
▁운영하는	-5487
og	-5488
▁깃	-5489
중국	-5490
켓몬	-5491
서울	-5492
▁복무	-5493
▁빅토	-5494
▁전력	-5495
▁플래	-5496
▁덜	-5497
처를	-5498
▁급제	-5499
▁포함된다	-5500
▁말레이시아	-5501
루를	-5502
▁비상	-5503
▁순간	-5504
만으로	-5505
▁세계적으로	-5506
마를	-5507
▁인디언	-5508
▁다케	-5509
▁위치를	-5510
▁일컫	-5511
식과	-5512
▁임무	-5513
▁선출되었다	-5514
예를	-5515
점의	-5516
▁없을	-5517
▁상하이	-5518
▁아들인	-5519
▁이들이	-5520
▁개별	-5521
▁스케	-5522
▁기록하며	-5523
목을	-5524
튜브	-5525
▁톰	-5526
▁수석	-5527
▁황금	-5528
파로	-5529
▁전쟁에서	-5530
▁전직	-5531
▁루마	-5532
▁검토	-5533
▁통상	-5534
▁남아있	-5535
▁나고	-5536
▁도모	-5537
▁알바	-5538
▁게다가	-5539
▁그래픽	-5540
▁아테네	-5541
41	-5542
▁똑	-5543
▁발언	-5544
▁가와	-5545
▁외국인	-5546
▁상태에서	-5547
▁연간	-5548
▁대수	-5549
▁1957	-5550
또는	-5551
▁방식을	-5552
▁이어지는	-5553
▁동안에	-5554
▁열차가	-5555
▁되는데	-5556
▁참가한	-5557
▁가공	-5558
▁이상이	-5559
년부터는	-5560
▁한국어	-5561
▁물을	-5562
▁복원	-5563
▁유고	-5564
▁받아들이	-5565
동물	-5566
▁자전	-5567
▁바이에른	-5568
▁권력	-5569
▁능력	-5570
▁되돌	-5571
▁연예	-5572
공원	-5573
▁도덕	-5574
▁갑자기	-5575
ov	-5576
▁해상	-5577
▁조선시대	-5578
▁맞서	-5579
▁조카	-5580
가시	-5581
산군	-5582
▁연고	-5583
▁미사일	-5584
▁다리	-5585
▁연습	-5586
▁닛	-5587
우가	-5588
▁단위	-5589
시리즈	-5590
▁동해	-5591
▁내셔널	-5592
▁차트	-5593
▁세상을	-5594
▁선생	-5595
▁화합	-5596
타의	-5597
▁돌려	-5598
th	-5599
▁뮌	-5600
▁후쿠오카	-5601
▁가치	-5602
금이	-5603
▁저서	-5604
▁게임을	-5605
▁녹색	-5606
면에서	-5607
▁분야에서	-5608
▁시리즈의	-5609
▁만한	-5610
▁곳이다	-5611
▁도전	-5612
이상	-5613
▁데이비드	-5614
▁나온다	-5615
▁마무리	-5616
즈가	-5617
▁선임	-5618
▁이전에는	-5619
42	-5620
감독	-5621
▁본질	-5622
▁시사	-5623
▁용어	-5624
▁추방	-5625
다의	-5626
▁프랑크	-5627
▁현지	-5628
▁지니고	-5629
▁어머니는	-5630
느냐	-5631
아르	-5632
등을	-5633
▁근육	-5634
▁상실	-5635
▁포함하는	-5636
IV	-5637
▁민중	-5638
▁남겼다	-5639
▁아이디	-5640
▁광복	-5641
▁살인	-5642
▁멸종	-5643
▁초기에	-5644
▁히틀러	-5645
▁필수	-5646
인인	-5647
▁파르	-5648
▁사람들에게	-5649
▁개칭	-5650
▁그로	-5651
▁희망	-5652
▁콤	-5653
▁곡은	-5654
만한	-5655
▁이웃	-5656
▁160	-5657
▁이름이다	-5658
IA	-5659
▁사퇴	-5660
▁크기	-5661
91	-5662
▁무사	-5663
미르	-5664
▁언덕	-5665
▁선포	-5666
▁쓰여	-5667
▁티베	-5668
▁아름다운	-5669
▁남아프리카	-5670
▁로드	-5671
자동차	-5672
▁수십	-5673
ers	-5674
▁1910	-5675
조차	-5676
▁확산	-5677
▁추가로	-5678
오의	-5679
▁고위	-5680
▁궤도	-5681
▁설립되었다	-5682
▁권리를	-5683
▁달려	-5684
▁극장	-5685
ST	-5686
▁퀸	-5687
▁카드	-5688
▁출전하여	-5689
▁포스트	-5690
되거나	-5691
한의	-5692
▁교향	-5693
▁직원	-5694
▁3,	-5695
▁세웠	-5696
▁좋지	-5697
강을	-5698
▁완벽	-5699
▁관할한다	-5700
▁상관	-5701
환으로	-5702
▁웅	-5703
▁상을	-5704
▁억제	-5705
▁계속해서	-5706
▁없게	-5707
▁여성의	-5708
▁일련의	-5709
계약	-5710
▁군이다	-5711
▁1938	-5712
▁농촌	-5713
▁대상이	-5714
친다	-5715
▁서술	-5716
▁안드로	-5717
루의	-5718
했다가	-5719
▁창원	-5720
▁창작	-5721
메리칸	-5722
소설	-5723
의의	-5724
▁단순한	-5725
다란	-5726
▁프린	-5727
▁화려	-5728
▁가이	-5729
▁왕이	-5730
▁프리드리	-5731
과대학	-5732
문제	-5733
▁양쪽	-5734
▁지구의	-5735
87	-5736
▁내세	-5737
▁츠	-5738
페르	-5739
유가	-5740
▁크다	-5741
▁미국은	-5742
코의	-5743
▁꾸준	-5744
▁노선을	-5745
▁당시에	-5746
▁이온	-5747
시장	-5748
▁조지아	-5749
자키	-5750
중한	-5751
에선	-5752
▁대장	-5753
▁소식을	-5754
년도	-5755
▁만다	-5756
렬한	-5757
▁대량	-5758
활동을	-5759
▁1936	-5760
▁1914	-5761
▁일은	-5762
베리아	-5763
▁일으켜	-5764
▁서쪽으로	-5765
▁보건	-5766
▁특성	-5767
▁반응을	-5768
▁부문에	-5769
▁전쟁의	-5770
평을	-5771
▁재학	-5772
▁독립을	-5773
시스코	-5774
에서부터	-5775
ab	-5776
▁참조	-5777
면은	-5778
▁의학	-5779
▁이른바	-5780
▁유학	-5781
비로	-5782
▁김정	-5783
▁함수	-5784
▁지불	-5785
▁끝내	-5786
▁직전	-5787
타로	-5788
▁화산	-5789
▁충분히	-5790
투아	-5791
비시	-5792
영을	-5793
▁시가	-5794
▁태국	-5795
."""	-5796
▁이른다	-5797
드레	-5798
보살	-5799
▁서구	-5800
▁블라	-5801
하기를	-5802
▁시카고	-5803
▁1951	-5804
▁자원	-5805
▁개념을	-5806
▁경향이	-5807
▁오프	-5808
▁들어갔다	-5809
▁아버지의	-5810
▁따서	-5811
▁잠수	-5812
▁공화국의	-5813
▁개방	-5814
▁수의	-5815
▁승려	-5816
▁문제는	-5817
▁암컷	-5818
▁바르셀로나	-5819
▁동북	-5820
▁구글	-5821
▁동쪽으로	-5822
▁입고	-5823
▁특징을	-5824
▁싸움	-5825
66	-5826
린의	-5827
▁엠	-5828
▁기록되어	-5829
어버	-5830
퍼스	-5831
소송	-5832
카는	-5833
▁브라운	-5834
▁노르웨이	-5835
면이	-5836
▁책을	-5837
▁사람들	-5838
▁방법은	-5839
그램	-5840
거래	-5841
-20	-5842
▁개인의	-5843
구치	-5844
▁말이	-5845
▁왕의	-5846
▁히로시마	-5847
▁가깝	-5848
▁뻗	-5849
▁나왔	-5850
▁리버	-5851
▁이루는	-5852
▁비롯하여	-5853
▁골든	-5854
감이	-5855
방향	-5856
▁몸을	-5857
보호	-5858
▁여섯	-5859
2)	-5860
▁그들을	-5861
▁분해	-5862
▁1918	-5863
▁이르렀다	-5864
▁근로	-5865
▁드래프트	-5866
▁조선총독	-5867
▁주기	-5868
▁윗	-5869
▁양의	-5870
▁파워	-5871
▁대한민국에서	-5872
▁리처	-5873
▁유효	-5874
▁혈액	-5875
▁사회의	-5876
▁프로토	-5877
공을	-5878
마가	-5879
됨에	-5880
▁별도의	-5881
▁덧붙	-5882
▁즈	-5883
▁오버	-5884
달러	-5885
▁달하는	-5886
실이	-5887
우를	-5888
▁선호	-5889
▁논문	-5890
율이	-5891
▁신분	-5892
▁차단	-5893
▁했는데	-5894
▁차지하고	-5895
▁노스	-5896
▁코파	-5897
43	-5898
모가	-5899
▁수리	-5900
렸으며	-5901
열을	-5902
▁사건은	-5903
▁1937	-5904
▁아래에	-5905
▁나들	-5906
▁후인	-5907
▁짜	-5908
▁장소	-5909
▁회장	-5910
▁뼈	-5911
▁사용자	-5912
되게	-5913
즈를	-5914
▁형식으로	-5915
▁화장	-5916
▁넣어	-5917
▁대부분을	-5918
▁고객	-5919
▁단순히	-5920
베르트	-5921
▁가까이	-5922
▁탄압	-5923
▁취리히	-5924
▁전문가	-5925
▁추기	-5926
주의자	-5927
▁사건으로	-5928
론에	-5929
▁원인이	-5930
환을	-5931
았으나	-5932
트릭	-5933
▁격파	-5934
▁진주	-5935
▁항의	-5936
▁보스	-5937
▁손을	-5938
▁라이트	-5939
등의	-5940
이후	-5941
서양	-5942
▁출시되었다	-5943
▁협회	-5944
부대	-5945
신문	-5946
▁삶을	-5947
49	-5948
코스	-5949
▁아틀	-5950
▁유배	-5951
남도의	-5952
▁멈	-5953
▁전투를	-5954
단이다	-5955
▁루트	-5956
가락	-5957
▁초기의	-5958
▁상태를	-5959
▁철거	-5960
▁유발	-5961
▁해리	-5962
55	-5963
분류	-5964
이닝	-5965
▁사마	-5966
▁포항	-5967
▁정부에	-5968
▁세부	-5969
▁임무를	-5970
족은	-5971
▁하여금	-5972
하여야	-5973
▁48	-5974
형에	-5975
▁일원	-5976
또한	-5977
비에	-5978
▁분자	-5979
▁교차	-5980
▁지향	-5981
스트라	-5982
▁있으므로	-5983
▁방영된	-5984
▁업무를	-5985
과정	-5986
▁마음을	-5987
▁이라크	-5988
▁?	-5989
바일	-5990
조건	-5991
▁사용하였다	-5992
▁일으켰다	-5993
▁발매된	-5994
재가	-5995
신으로	-5996
~)	-5997
▁영구	-5998
▁120	-5999
▁하기도	-6000
▁에르	-6001
▁(19	-6002
서와	-6003
▁탐사	-6004
▁화성	-6005
▁불렸다	-6006
▁최대의	-6007
▁하나가	-6008
교는	-6009
▁수상하였다	-6010
▁드물	-6011
▁본격적으로	-6012
te	-6013
▁첼	-6014
▁구멍	-6015
▁닫	-6016
▁심리	-6017
▁성공했다	-6018
▁곽	-6019
▁아래와	-6020
사전	-6021
스피	-6022
호와	-6023
▁일종이다	-6024
▁병원	-6025
▁안동	-6026
▁사전	-6027
▁마크	-6028
▁세우	-6029
판은	-6030
▁무한	-6031
▁토론토	-6032
같이	-6033
왕을	-6034
유를	-6035
▁성직	-6036
▁폴리	-6037
▁라고	-6038
▁내놓	-6039
▁한자	-6040
▁일종의	-6041
▁보편	-6042
행성	-6043
▁동성애	-6044
연대	-6045
▁보냈	-6046
▁주장하는	-6047
▁미리	-6048
▁위에서	-6049
▁크로아티아	-6050
▁텍사스	-6051
▁가난	-6052
미니	-6053
▁집에	-6054
▁기병	-6055
▁탓	-6056
▁환승	-6057
▁제이	-6058
▁앞으로	-6059
▁체육	-6060
▁재능	-6061
산과	-6062
▁보여주는	-6063
▁넷	-6064
▁그리하여	-6065
프라	-6066
▁1935	-6067
▁가마	-6068
해에	-6069
▁걸친	-6070
데르	-6071
무장	-6072
▁입장	-6073
프와	-6074
▁비판을	-6075
▁이외의	-6076
▁연료	-6077
▁의미하는	-6078
▁동방	-6079
▁분기	-6080
▁한일	-6081
▁재임	-6082
법인	-6083
▁조선의	-6084
▁서서	-6085
▁수술	-6086
67	-6087
▁줄어들	-6088
결승	-6089
▁북아메리카	-6090
▁수소	-6091
▁겉	-6092
학은	-6093
▁보이지	-6094
용을	-6095
장애	-6096
츠는	-6097
▁틈	-6098
▁패션	-6099
하기에	-6100
▁상호작용	-6101
하를	-6102
▁1933	-6103
▁쌀	-6104
탄을	-6105
름이	-6106
▁아이돌	-6107
▁스탈	-6108
폴리	-6109
▁기본적으로	-6110
로써	-6111
제르	-6112
▁장르	-6113
였는데	-6114
▁강요	-6115
▁도쿠가와	-6116
▁1932	-6117
양이	-6118
학교를	-6119
▁소집	-6120
다시	-6121
▁거짓	-6122
▁가설	-6123
▁대다	-6124
▁중학교이다	-6125
▁자라	-6126
▁나라의	-6127
▁멘	-6128
▁교류	-6129
▁호흡	-6130
▁획득했다	-6131
크와	-6132
포로	-6133
▁찰스	-6134
%,	-6135
▁성경	-6136
로서는	-6137
▁이상을	-6138
▁제도를	-6139
주군	-6140
▁크리	-6141
▁산화	-6142
BO	-6143
▁신고	-6144
▁장수	-6145
▁교회의	-6146
▁알고리즘	-6147
▁오페라	-6148
실로	-6149
▁구성하는	-6150
▁더블	-6151
파와	-6152
▁시작했고	-6153
▁탄핵	-6154
▁대표로	-6155
li	-6156
▁화이트	-6157
av	-6158
단에서	-6159
▁일상	-6160
▁명칭을	-6161
▁준우승	-6162
▁마드리드	-6163
▁기여했다	-6164
▁입법	-6165
펙트	-6166
▁브레	-6167
▁돌아온	-6168
▁알레	-6169
▁공장	-6170
▁십자	-6171
▁상대식	-6172
▁작곡가	-6173
▁적극적으로	-6174
▁아오	-6175
▁되기	-6176
▁자가	-6177
▁향토	-6178
▁프리드리히	-6179
나카	-6180
▁배포	-6181
▁경기가	-6182
▁자이언	-6183
▁군인	-6184
▁본다	-6185
▁와이	-6186
▁우수	-6187
▁참여한	-6188
▁재생	-6189
▁사건의	-6190
▁아버지가	-6191
▁영토를	-6192
▁그녀가	-6193
▁마주	-6194
▁밝은	-6195
▁위원회	-6196
발을	-6197
츠의	-6198
프란	-6199
▁입은	-6200
▁지중	-6201
파이	-6202
ang	-6203
▁갈색	-6204
▁전송	-6205
그래	-6206
지면	-6207
▁사항	-6208
▁잠재	-6209
▁암호	-6210
민의	-6211
▁대대	-6212
▁쾌	-6213
▁타임	-6214
▁방언	-6215
▁작사	-6216
▁개척	-6217
▁최우수	-6218
▁결의	-6219
▁생태	-6220
▁해발	-6221
등이	-6222
▁동양	-6223
▁흑인	-6224
▁콘텐츠	-6225
▁앵	-6226
란색	-6227
▁대법	-6228
씨를	-6229
▁구성원	-6230
▁톱	-6231
제도	-6232
▁위치에	-6233
▁시인	-6234
▁팔레	-6235
되었기	-6236
▁홋카이도	-6237
▁발레	-6238
▁진학	-6239
▁식품	-6240
로에	-6241
ard	-6242
▁뚜렷	-6243
중인	-6244
▁김성	-6245
▁커버	-6246
▁영향으로	-6247
▁나들목	-6248
▁뮌헨	-6249
▁발간	-6250
▁칠레	-6251
等學校	-6252
군에게	-6253
▁소프트웨	-6254
▁초청	-6255
▁권리	-6256
▁영국에서	-6257
프가니스탄	-6258
▁발음	-6259
▁액션	-6260
ak	-6261
국과	-6262
▁유통	-6263
▁호수	-6264
▁주변의	-6265
▁데뷔하였다	-6266
▁인천광역시	-6267
▁매장	-6268
드러	-6269
▁미국으로	-6270
통합	-6271
호에	-6272
▁미쓰	-6273
▁쓰러	-6274
치기	-6275
▁그럼	-6276
▁밥	-6277
침을	-6278
▁수준의	-6279
▁영화의	-6280
야구	-6281
▁이익	-6282
▁이용할	-6283
▁스프링	-6284
힌다	-6285
▁도움이	-6286
▁인터뷰에서	-6287
기지	-6288
▁놓여	-6289
▁게임의	-6290
▁배경으로	-6291
▁자랑	-6292
물과	-6293
▁크레	-6294
하라는	-6295
층에	-6296
▁발생한다	-6297
▁노동자	-6298
▁고급	-6299
▁실천	-6300
▁함경	-6301
▁살아남	-6302
보다도	-6303
기인	-6304
클리	-6305
화하는	-6306
▁강하게	-6307
_1	-6308
차의	-6309
▁주된	-6310
▁처음에	-6311
월의	-6312
▁무대	-6313
위에서	-6314
▁명으로	-6315
▁자금	-6316
▁프라이	-6317
▁올스타	-6318
▁보험	-6319
▁유력	-6320
▁파키스탄	-6321
▁모터	-6322
▁메달	-6323
러는	-6324
▁글로벌	-6325
▁작품의	-6326
▁갖게	-6327
▁수컷	-6328
▁않았지만	-6329
속에	-6330
피스	-6331
▁약탈	-6332
토는	-6333
먼트	-6334
▁드래	-6335
▁아동	-6336
▁촉진	-6337
키퍼	-6338
▁며	-6339
▁물려	-6340
▁사랑을	-6341
83	-6342
▁김종	-6343
▁치렀다	-6344
계와	-6345
무네	-6346
▁공원	-6347
▁않기	-6348
▁압도	-6349
▁운송	-6350
▁후보가	-6351
▁주력	-6352
▁웹사이트	-6353
비히	-6354
▁디스	-6355
아나	-6356
▁소득	-6357
▁덩	-6358
▁죽음을	-6359
았지만	-6360
▁디스크	-6361
▁사건에	-6362
▁마감	-6363
본부	-6364
▁이벤	-6365
-4	-6366
▁예방	-6367
▁진격	-6368
▁후퇴	-6369
ph	-6370
공간	-6371
▁지칭	-6372
▁특별히	-6373
▁심지어	-6374
특별자치	-6375
▁남녀	-6376
그러나	-6377
ine	-6378
▁짝	-6379
▁오는	-6380
당으로	-6381
▁부동	-6382
▁이외에도	-6383
▁벨라	-6384
-5	-6385
▁가속	-6386
디움	-6387
스팅	-6388
▁최근에는	-6389
▁순환	-6390
▁랜	-6391
▁목숨	-6392
▁상황에	-6393
▁핑	-6394
▁이어졌다	-6395
리안	-6396
학에	-6397
▁시정	-6398
▁반대하는	-6399
▁성남	-6400
드리아	-6401
▁역임하였다	-6402
▁비공	-6403
▁천안	-6404
어에서	-6405
▁본관은	-6406
▁백성	-6407
▁중추	-6408
▁란	-6409
▁도쿄도	-6410
▁세계대전	-6411
▁신화	-6412
▁오키	-6413
군에서	-6414
▁정식으로	-6415
▁유전자	-6416
▁타이거	-6417
▁돌파	-6418
(2	-6419
▁혼자	-6420
▁들면	-6421
▁착용	-6422
▁가치를	-6423
▁불가리아	-6424
▁많았다	-6425
▁데이터를	-6426
▁적응	-6427
▁인기가	-6428
이게	-6429
환경	-6430
▁포함되었다	-6431
폴리스	-6432
▁1934	-6433
중을	-6434
▁타격	-6435
절을	-6436
▁원인	-6437
▁검색	-6438
▁감독은	-6439
▁싸우	-6440
▁유한	-6441
▁왕조의	-6442
▁할아버	-6443
어에	-6444
▁개찰	-6445
▁소규모	-6446
▁용어는	-6447
▁1928	-6448
즈니	-6449
▁고종	-6450
▁갖는다	-6451
▁감시	-6452
▁사우스	-6453
▁후에도	-6454
▁바이러스	-6455
기구	-6456
▁카자	-6457
바의	-6458
▁명시	-6459
라에	-6460
슬로	-6461
▁현존	-6462
결을	-6463
심이	-6464
▁집을	-6465
▁AFC	-6466
▁상태가	-6467
▁청구	-6468
타가	-6469
▁영향력을	-6470
후에	-6471
▁블록	-6472
▁폭력	-6473
▁웃	-6474
▁큐	-6475
▁주재	-6476
中學校	-6477
▁역에서	-6478
종합	-6479
▁속의	-6480
▁태양의	-6481
▁1924	-6482
78	-6483
▁오다	-6484
▁올라가	-6485
▁유대인	-6486
▁아티스트	-6487
▁막기	-6488
▁수를	-6489
▁훌륭	-6490
배를	-6491
담을	-6492
▁정확히	-6493
▁n	-6494
인가	-6495
▁건물은	-6496
▁골키퍼	-6497
▁나뉘어	-6498
▁출연했다	-6499
령의	-6500
▁관계에	-6501
▁초기에는	-6502
미술	-6503
전자	-6504
▁허락	-6505
▁기반을	-6506
가능	-6507
▁사찰	-6508
▁홈런을	-6509
슨이	-6510
▁이명	-6511
▁전화	-6512
▁인상	-6513
하시	-6514
▁새끼	-6515
현은	-6516
▁포트	-6517
▁길이는	-6518
▁요코하마	-6519
지마	-6520
▁오카	-6521
▁리그의	-6522
▁칼리	-6523
▁주간	-6524
▁발휘	-6525
ob	-6526
다리	-6527
까지도	-6528
▁일단	-6529
▁등장인	-6530
▁원래는	-6531
▁관계는	-6532
nd	-6533
대부	-6534
테이	-6535
▁변호사	-6536
▁의도	-6537
SS	-6538
▁비트	-6539
▁소화	-6540
▁입력	-6541
▁정통	-6542
▁조선시대의	-6543
▁사가	-6544
노스	-6545
안전	-6546
행이	-6547
▁열리는	-6548
▁아프가니스탄	-6549
밀한	-6550
ount	-6551
▁1900	-6552
▁군대	-6553
았는데	-6554
▁전형적인	-6555
주의와	-6556
나를	-6557
▁담고	-6558
▁그만	-6559
▁끝으로	-6560
▁증언	-6561
관계를	-6562
▁낸	-6563
▁중성	-6564
▁집안	-6565
▁어두	-6566
▁유적	-6567
▁부르고	-6568
용의	-6569
▁St	-6570
▁이념	-6571
▁영화를	-6572
모의	-6573
▁행위를	-6574
▁프로듀서	-6575
▁원시	-6576
▁전체를	-6577
▁소요	-6578
▁체제	-6579
▁높이는	-6580
관이다	-6581
▁의견을	-6582
체인	-6583
하에서	-6584
▁롱	-6585
▁모바일	-6586
▁카라	-6587
래의	-6588
▁연산	-6589
▁프랭	-6590
▁열었다	-6591
▁적어도	-6592
▁북미	-6593
▁축소	-6594
▁클라	-6595
식에서	-6596
운동을	-6597
▁만들기	-6598
▁첫째	-6599
▁속도	-6600
▁이끌어	-6601
▁안내	-6602
▁강릉	-6603
▁서명	-6604
슬라비아	-6605
목에	-6606
목으로	-6607
▁관해	-6608
▁말로	-6609
▁리그에서	-6610
▁루마니아	-6611
더스	-6612
▁농구	-6613
▁나타난	-6614
▁황제의	-6615
▁관객	-6616
▁싱가포르	-6617
▁조선민주주의인민공화국의	-6618
리언	-6619
받침	-6620
▁가고	-6621
로미터	-6622
▁커다란	-6623
적이며	-6624
▁시드	-6625
▁없었고	-6626
▁조건을	-6627
▁꺼	-6628
▁군사를	-6629
나마	-6630
▁벼슬	-6631
▁질량	-6632
우스는	-6633
▁없지만	-6634
▁하던	-6635
본은	-6636
▁NH	-6637
권과	-6638
▁원소	-6639
▁자체가	-6640
▁42	-6641
▁가상	-6642
▁땅을	-6643
하면서도	-6644
▁콘스탄티노	-6645
▁토착	-6646
▁루이스	-6647
훈련	-6648
집을	-6649
▁대변	-6650
▁동반	-6651
판에	-6652
▁준결승	-6653
님의	-6654
▁붙어	-6655
▁웨일	-6656
갔고	-6657
▁모습이	-6658
▁서기	-6659
▁1931	-6660
슬라	-6661
▁맞추	-6662
▁맺고	-6663
▁집필	-6664
체이다	-6665
▁맺었다	-6666
ie	-6667
~19	-6668
▁공기	-6669
▁무릎	-6670
▁콜롬	-6671
▁열매	-6672
▁원하는	-6673
▁극복	-6674
▁유용	-6675
▁입단했다	-6676
▁이론을	-6677
▁데려	-6678
보통	-6679
▁편의	-6680
▁기도	-6681
렀고	-6682
너는	-6683
디는	-6684
▁대화	-6685
▁국경을	-6686
지구	-6687
유한	-6688
크래프트	-6689
▁남겨	-6690
당에서	-6691
▁단층	-6692
▁이어서	-6693
국인	-6694
대문	-6695
▁47	-6696
▁좁은	-6697
▁대학의	-6698
▁도시는	-6699
왕후	-6700
▁오케	-6701
등급	-6702
▁멀티	-6703
▁허가	-6704
당하고	-6705
▁뛰고	-6706
▁승부	-6707
한다면	-6708
▁발전을	-6709
차에	-6710
박쥐	-6711
▁재료	-6712
시스트	-6713
치오	-6714
▁39	-6715
▁면역	-6716
▁힙	-6717
▁자매	-6718
▁가끔	-6719
▁지리	-6720
이라며	-6721
▁형성된	-6722
▁에너지를	-6723
▁시절에	-6724
▁우리가	-6725
▁감정	-6726
▁과도	-6727
▁자는	-6728
▁또다른	-6729
▁1925	-6730
▁파크	-6731
졌던	-6732
럼비아	-6733
리티	-6734
▁복음	-6735
보험	-6736
주의는	-6737
▁재산	-6738
▁랑	-6739
84	-6740
▁철저	-6741
▁지역이	-6742
니와	-6743
▁법적	-6744
▁소리	-6745
▁손에	-6746
▁말해	-6747
▁사도	-6748
▁1923	-6749
▁맨체스터	-6750
▁소속의	-6751
▁나이에	-6752
▁일본은	-6753
▁사막	-6754
▁동일본	-6755
률이	-6756
리코	-6757
▁실업	-6758
▁지나지	-6759
금은	-6760
건의	-6761
▁쇠퇴	-6762
▁연안	-6763
▁에드워드	-6764
▁서방	-6765
▁구성된다	-6766
류에	-6767
사기	-6768
사우루스	-6769
점과	-6770
▁일으킨	-6771
▁든	-6772
모는	-6773
▁남극	-6774
▁부속	-6775
▁연구는	-6776
▁적도	-6777
▁코치	-6778
▁강남	-6779
▁상태에	-6780
▁1929	-6781
▁구원	-6782
▁대동	-6783
▁심장	-6784
▁1921	-6785
▁대학교의	-6786
스부르크	-6787
▁산하	-6788
▁힘들	-6789
61	-6790
자베	-6791
▁잡고	-6792
▁국가가	-6793
▁때마다	-6794
▁바이러	-6795
▁서쪽으로는	-6796
▁이르기까지	-6797
토미	-6798
▁이적하였다	-6799
▁스크린	-6800
청은	-6801
▁예외	-6802
시스템	-6803
▁그려져	-6804
토벤	-6805
▁성격을	-6806
클레	-6807
경기에서	-6808
▁e	-6809
▁감옥	-6810
령으로	-6811
▁국정	-6812
▁밀라노	-6813
▁역사가	-6814
훼손	-6815
▁65	-6816
▁화가	-6817
교도	-6818
법과	-6819
▁교사	-6820
▁부탁	-6821
되던	-6822
▁본토	-6823
▁수백	-6824
▁핸	-6825
실의	-6826
TA	-6827
미아	-6828
비와	-6829
조참	-6830
ter	-6831
▁IC	-6832
바키아	-6833
졌으나	-6834
됐고	-6835
중의	-6836
▁제네	-6837
아웃	-6838
▁하와	-6839
▁그녀를	-6840
연의	-6841
▁남쪽으로는	-6842
청년	-6843
▁그들	-6844
▁보이고	-6845
▁싫	-6846
▁클레	-6847
수도	-6848
▁영역	-6849
▁그러므로	-6850
▁유입	-6851
되었다는	-6852
보로	-6853
▁수호	-6854
▁부상으로	-6855
▁동쪽으로는	-6856
▁지자	-6857
▁회사의	-6858
▁닮	-6859
▁강을	-6860
세기의	-6861
▁세력이	-6862
81	-6863
나게	-6864
▁Q	-6865
대원	-6866
미사	-6867
의가	-6868
▁감각	-6869
▁있어야	-6870
문이다	-6871
▁스티븐	-6872
▁위대한	-6873
▁전동차	-6874
▁중에서도	-6875
쳤고	-6876
호쿠	-6877
▁영양	-6878
▁아르메	-6879
▁미국에	-6880
▁주목을	-6881
▁텐	-6882
름은	-6883
말로	-6884
▁생애	-6885
▁용인	-6886
▁참고	-6887
▁프로그래밍	-6888
각형	-6889
올린	-6890
▁바둑	-6891
▁포함된	-6892
타카	-6893
▁종이	-6894
▁사이를	-6895
(16	-6896
▁그럼에도	-6897
▁비스	-6898
편의	-6899
▁규슈	-6900
▁개량	-6901
브로	-6902
▁번주	-6903
오고	-6904
▁엑스	-6905
▁패턴	-6906
▁석방	-6907
▁주변에	-6908
족을	-6909
▁행렬	-6910
▁그리스의	-6911
구조	-6912
▁개명	-6913
마저	-6914
해군	-6915
▁성과를	-6916
▁되기도	-6917
▁유나이티드	-6918
▁옵	-6919
▁한성	-6920
▁보스턴	-6921
▁정이다	-6922
▁거리에	-6923
▁다루는	-6924
▁모토	-6925
▁주거	-6926
▁행복	-6927
▁공산당	-6928
DP	-6929
▁주제	-6930
졌지만	-6931
석으로	-6932
▁베네치아	-6933
우라	-6934
▁방송을	-6935
▁새벽	-6936
▁지역에서는	-6937
투표	-6938
▁살았다	-6939
이즈	-6940
▁고고	-6941
▁넘겨	-6942
▁나고야	-6943
▁김대중	-6944
▁받으며	-6945
’(	-6946
▁.	-6947
율은	-6948
▁공주	-6949
▁부르기도	-6950
▁이재	-6951
▁혼인	-6952
였다고	-6953
마뱀	-6954
▁1922	-6955
71	-6956
▁거리를	-6957
▁했	-6958
▁피터	-6959
▁세계를	-6960
▁우리는	-6961
▁트라	-6962
▁유고슬라비아	-6963
▁북극	-6964
▁풍부한	-6965
▁와서	-6966
▁상황이	-6967
▁오늘날의	-6968
BM	-6969
▁당사	-6970
년까지는	-6971
▁결승전에서	-6972
▁권한을	-6973
▁동굴	-6974
실에서	-6975
▁결과로	-6976
▁삼았다	-6977
▁파트너	-6978
ess	-6979
▁적절한	-6980
▁수감	-6981
대상	-6982
▁운동에	-6983
▁본선에	-6984
▁아무런	-6985
▁죽자	-6986
▁대해서도	-6987
▁되었는데	-6988
ae	-6989
내의	-6990
▁신도	-6991
▁맞춰	-6992
▁상주	-6993
▁베른	-6994
▁영혼	-6995
률을	-6996
▁초래	-6997
▁신의	-6998
자들과	-6999
▁기능이	-7000
▁배급	-7001
면으로	-7002
▁대원	-7003
▁데뷔했다	-7004
ice	-7005
기서	-7006
유로	-7007
▁토벌	-7008
▁음반을	-7009
▁당나라	-7010
▁수밖에	-7011
▁기부	-7012
▁실제로는	-7013
이치	-7014
▁독점	-7015
▁유튜브	-7016
오로	-7017
노미야	-7018
▁급격	-7019
향을	-7020
▁안토니	-7021
ell	-7022
▁필라	-7023
근혜	-7024
▁올해의	-7025
청의	-7026
카드	-7027
▁게르	-7028
▁탑승	-7029
자이자	-7030
▁민법	-7031
▁현상을	-7032
함은	-7033
▁의미가	-7034
▁무산	-7035
▁운반	-7036
▁덕분에	-7037
▁변화가	-7038
작으로	-7039
▁되찾	-7040
▁보이며	-7041
▁게임이다	-7042
▁곱	-7043
▁이행	-7044
▁출신이다	-7045
▁메모리	-7046
63	-7047
베이스	-7048
성에서	-7049
ct	-7050
▁생기	-7051
전에서는	-7052
▁섹	-7053
▁먹는다	-7054
▁비례대표	-7055
▁북쪽으로는	-7056
▁41	-7057
체에서	-7058
▁참가하여	-7059
▁다녔	-7060
인조	-7061
▁고안	-7062
▁곤충	-7063
▁모양으로	-7064
즈와	-7065
▁소스	-7066
▁골드	-7067
’,	-7068
에게도	-7069
게이	-7070
▁없었던	-7071
▁자신은	-7072
▁AT	-7073
▁상하	-7074
리온	-7075
▁무관	-7076
▁비롯해	-7077
비디오	-7078
▁기본적인	-7079
▁공개되었다	-7080
머리	-7081
▁백제	-7082
▁중립	-7083
▁호주	-7084
▁정부를	-7085
▁지었다	-7086
▁대선	-7087
▁해협	-7088
82	-7089
▁쏘	-7090
우스의	-7091
▁하인	-7092
신경	-7093
▁수직	-7094
▁노선은	-7095
▁효과가	-7096
▁알리	-7097
▁우에	-7098
도니아	-7099
▁꾸준히	-7100
74	-7101
▁고통	-7102
▁입증	-7103
▁마치고	-7104
▁늑	-7105
▁독재	-7106
▁말라	-7107
▁도시를	-7108
▁이어져	-7109
▁결정했다	-7110
▁때문이었다	-7111
리브	-7112
▁파생	-7113
▁흰색	-7114
VP	-7115
▁종교적	-7116
▁곳은	-7117
▁탄소	-7118
▁교수로	-7119
문과	-7120
▁세워진	-7121
▁참가하였다	-7122
▁못하게	-7123
▁밀접	-7124
▁주에	-7125
▁돌아왔다	-7126
▁차지하는	-7127
치며	-7128
사이다	-7129
▁약간의	-7130
▁않았으며	-7131
▁소형	-7132
졌는데	-7133
▁발렌	-7134
▁전술	-7135
시대에	-7136
중이다	-7137
마에	-7138
▁비정	-7139
지니아	-7140
하르트	-7141
발전	-7142
▁사로	-7143
비트	-7144
▁1917	-7145
▁납치	-7146
▁중시	-7147
▁생각을	-7148
▁수도권	-7149
인들에게	-7150
▁시게	-7151
▁트럼	-7152
자였던	-7153
▁삽입	-7154
▁이즈	-7155
▁현대의	-7156
토가	-7157
속의	-7158
MA	-7159
미국	-7160
▁장례	-7161
▁도중에	-7162
▁사용하지	-7163
Pa	-7164
▁겨우	-7165
브레	-7166
▁내는	-7167
▁발표된	-7168
69	-7169
▁몬테	-7170
▁이날	-7171
▁소리를	-7172
카미	-7173
▁놀라	-7174
▁거대	-7175
주의에	-7176
▁찬성	-7177
▁특성을	-7178
프란시스코	-7179
노의	-7180
▁경유	-7181
▁거느	-7182
▁크기가	-7183
노는	-7184
▁감사	-7185
▁망원	-7186
▁폐지되었다	-7187
총리	-7188
▁사촌	-7189
▁문화적	-7190
▁지바	-7191
▁곧바로	-7192
▁1912	-7193
▁마그	-7194
고리	-7195
▁모임	-7196
▁오이	-7197
▁이미지	-7198
▁졸업했다	-7199
▁석사	-7200
▁가능성을	-7201
로지	-7202
시즌을	-7203
▁이하의	-7204
보기	-7205
▁결심	-7206
보이	-7207
▁수반	-7208
▁들었다	-7209
▁거둔	-7210
▁정권을	-7211
▁단행	-7212
해지고	-7213
▁리처드	-7214
ne	-7215
공신	-7216
▁43	-7217
▁진출에	-7218
▁전해진다	-7219
▁닌텐	-7220
▁내가	-7221
▁토너	-7222
이었는데	-7223
▁먹는	-7224
▁다이묘	-7225
▁바람에	-7226
▁랩	-7227
판의	-7228
▁반면에	-7229
▁명칭으로	-7230
▁담은	-7231
▁영국과	-7232
▁띤	-7233
▁뚫	-7234
든지	-7235
▁논리	-7236
▁멜로	-7237
▁시달	-7238
▁입었다	-7239
▁v	-7240
▁지대	-7241
류와	-7242
▁SS	-7243
▁삭제	-7244
▁제후	-7245
▁출현	-7246
▁해설	-7247
천의	-7248
▁끈	-7249
병원	-7250
▁들여	-7251
▁전북	-7252
연구소	-7253
▁베토벤	-7254
▁병력을	-7255
▁졸업한	-7256
▁유럽에서	-7257
장군	-7258
▁실내	-7259
▁예산	-7260
▁화폐	-7261
▁주요한	-7262
개는	-7263
고에	-7264
▁센트	-7265
▁위키	-7266
▁플로리다	-7267
62	-7268
▁64	-7269
▁경남	-7270
▁그라	-7271
▁관심이	-7272
▁남아메리카	-7273
▁필요로	-7274
▁긴급	-7275
상이다	-7276
▁펑	-7277
▁집에서	-7278
오가	-7279
▁이은	-7280
▁오리지	-7281
▁의정부	-7282
▁발생했다	-7283
72	-7284
▁구사	-7285
▁부드	-7286
▁아메리칸	-7287
▁1,000	-7288
▁기하	-7289
▁시모	-7290
▁NA	-7291
▁개국	-7292
▁중국에서	-7293
모델	-7294
▁보르	-7295
▁지질	-7296
▁이수	-7297
▁스타디움	-7298
▁무리	-7299
▁아울	-7300
▁퀘	-7301
중이	-7302
▁빨간	-7303
▁방법이	-7304
▁인물로	-7305
▁한반도	-7306
▁1927	-7307
▁매주	-7308
▁압박	-7309
▁오염	-7310
타와	-7311
▁매니	-7312
▁세월	-7313
▁풋	-7314
▁개장	-7315
현재의	-7316
ID	-7317
슬림	-7318
▁순수	-7319
▁크루	-7320
▁실시된	-7321
ub	-7322
야는	-7323
▁연락	-7324
사이드	-7325
▁총선에서	-7326
바다	-7327
족과	-7328
▁고리	-7329
▁영원	-7330
▁전망	-7331
고자	-7332
▁붙잡	-7333
▁특허	-7334
생활을	-7335
▁있다가	-7336
계열	-7337
▁배열	-7338
▁세우고	-7339
직에서	-7340
▁다음으로	-7341
레는	-7342
슬링	-7343
▁매각	-7344
▁성과	-7345
▁프랑스는	-7346
▁닉	-7347
▁아리	-7348
▁앤드	-7349
▁등도	-7350
▁선조	-7351
▁성질	-7352
▁추대	-7353
년만에	-7354
▁크라	-7355
▁뜻이다	-7356
▁평론	-7357
스에게	-7358
▁메탈	-7359
▁걷	-7360
▁하느	-7361
▁일어난다	-7362
▁명성을	-7363
▁않았던	-7364
▁르네	-7365
79	-7366
▁노무	-7367
▁사이트	-7368
신과	-7369
▁시간에	-7370
▁대학에서	-7371
▁이용하는	-7372
실한	-7373
나고	-7374
르키	-7375
▁창당	-7376
률은	-7377
삼국	-7378
▁단선	-7379
▁인도의	-7380
위원회가	-7381
라면	-7382
음의	-7383
병으로	-7384
▁600	-7385
▁차지하였다	-7386
르바	-7387
▁코너	-7388
▁방향을	-7389
▁1926	-7390
루살	-7391
▁44	-7392
분으로	-7393
▁두려워	-7394
▁밖으로	-7395
▁광역	-7396
▁규모가	-7397
하겠다고	-7398
▁기구	-7399
▁등장한	-7400
▁젠	-7401
ant	-7402
▁못한다	-7403
▁부분에	-7404
▁1907	-7405
▁게시	-7406
▁옮겼다	-7407
▁지원하는	-7408
▁베어	-7409
▁요미	-7410
▁중지	-7411
▁지연	-7412
나라는	-7413
▁빌보드	-7414
령은	-7415
▁걸려	-7416
▁로렌	-7417
▁진술	-7418
▁포켓몬	-7419
▁아래의	-7420
반의	-7421
▁역의	-7422
▁자세	-7423
기능	-7424
대사	-7425
▁미나	-7426
버드	-7427
▁압축	-7428
된다는	-7429
▁것이고	-7430
▁공간을	-7431
▁못했고	-7432
▁"200	-7433
터와	-7434
▁옹호	-7435
▁관련하여	-7436
▁콜롬비아	-7437
해는	-7438
100	-7439
▁벗어	-7440
우에	-7441
▁탐험	-7442
▁제공하고	-7443
▁접속	-7444
플로	-7445
▁JR	-7446
▁살펴	-7447
▁보여주었다	-7448
▁빗	-7449
ity	-7450
▁천황의	-7451
피를	-7452
▁섬식	-7453
▁미치는	-7454
▁세리에	-7455
▁모습으로	-7456
▁굽	-7457
〉,	-7458
관광	-7459
성도	-7460
▁연설	-7461
▁책은	-7462
▁플루	-7463
마루	-7464
비행	-7465
▁노선이	-7466
▁셋째	-7467
▁계층	-7468
▁커뮤니티	-7469
▁고립	-7470
▁고가	-7471
▁색깔	-7472
끼리	-7473
▁사람으로	-7474
베리	-7475
이면	-7476
▁물이	-7477
▁눈을	-7478
▁동맹을	-7479
.'	-7480
▁방위	-7481
▁엘리자베	-7482
art	-7483
▁갱	-7484
▁문화를	-7485
▁사진을	-7486
ue	-7487
부사	-7488
▁습격	-7489
리케이션	-7490
▁체험	-7491
면서도	-7492
살이	-7493
▁거친	-7494
▁대조	-7495
▁퍼져	-7496
▁곳을	-7497
▁정류	-7498
▁역사는	-7499
▁페이스	-7500
나르	-7501
활동	-7502
▁부처	-7503
▁일본인	-7504
▁작전을	-7505
▁만난	-7506
루살렘	-7507
▁하다가	-7508
제품	-7509
▁휴대	-7510
레나	-7511
▁하사	-7512
EC	-7513
면과	-7514
▁없기	-7515
때로	-7516
▁뒤로	-7517
▁잉글랜드의	-7518
자나	-7519
▁스트라이	-7520
▁앱	-7521
개국	-7522
긴다	-7523
▁삼아	-7524
▁서북	-7525
▁일대	-7526
▁Count	-7527
▁공정	-7528
II	-7529
▁얻게	-7530
▁전체적으로	-7531
▁히트	-7532
▁셔	-7533
마쓰	-7534
▁별로	-7535
▁수익	-7536
니에	-7537
린이	-7538
▁심사	-7539
▁추적	-7540
▁설립한	-7541
▁분포한다	-7542
▁i	-7543
▁도메	-7544
▁클리	-7545
▁흐르는	-7546
▁열차는	-7547
▁딱	-7548
▁AP	-7549
▁음성	-7550
▁170	-7551
▁마틴	-7552
▁산악	-7553
▁되었다고	-7554
▁샌프란시스코	-7555
se	-7556
▁양산	-7557
▁자유를	-7558
▁발명	-7559
▁아케	-7560
▁HIV	-7561
▁클라우	-7562
▁가득	-7563
▁코믹	-7564
지기도	-7565
▁서울시	-7566
▁동아시아	-7567
▁콜로	-7568
재인	-7569
▁학사	-7570
니스트	-7571
사우루	-7572
▁가시	-7573
건설	-7574
▁간섭	-7575
▁기용	-7576
▁죽고	-7577
▁아이스	-7578
드르	-7579
▁리이다	-7580
▁아니었다	-7581
▁간에	-7582
▁레벨	-7583
▁청주	-7584
호선의	-7585
▁들어간	-7586
▁46	-7587
▁구로	-7588
연한	-7589
전투	-7590
▁트위	-7591
▁대회를	-7592
▁오리지널	-7593
▁폭격	-7594
펙트럼	-7595
▁관하여	-7596
습을	-7597
▁소위	-7598
▁전남	-7599
▁전염	-7600
▁직접적인	-7601
73	-7602
▁첩	-7603
음에	-7604
▁대단	-7605
학과를	-7606
령에	-7607
▁사형	-7608
▁윤치	-7609
▁차지한다	-7610
▁중동	-7611
▁친선	-7612
▁경계를	-7613
▁극단	-7614
▁문화의	-7615
▁초점을	-7616
▁지정되어	-7617
▁전작	-7618
▁참모	-7619
교가	-7620
들인	-7621
정도	-7622
▁세계에	-7623
등한	-7624
큐멘	-7625
▁예전	-7626
▁파티	-7627
▁공식적인	-7628
▁상의	-7629
▁우익	-7630
▁황태	-7631
▁라이벌	-7632
▁블라디	-7633
▁이루어진다	-7634
론적	-7635
보가	-7636
파에	-7637
▁모양을	-7638
위원회는	-7639
▁말하며	-7640
보의	-7641
심의	-7642
▁영감을	-7643
영이	-7644
▁경험을	-7645
▁1905	-7646
▁막을	-7647
▁보기	-7648
▁CP	-7649
▁설이	-7650
▁활동에	-7651
오와	-7652
▁800	-7653
▁계기가	-7654
▁존재를	-7655
▁스마트폰	-7656
▁가쓰	-7657
▁대회는	-7658
북도의	-7659
▁모래	-7660
▁홀로	-7661
대한민	-7662
▁유지하고	-7663
▁론	-7664
트랙	-7665
▁미국이	-7666
합니다	-7667
▁의미로	-7668
▁케이블	-7669
청이	-7670
▁선두	-7671
▁올린	-7672
으려	-7673
▁패러	-7674
▁딴	-7675
바는	-7676
토를	-7677
▁깊이	-7678
▁사과	-7679
▁결과가	-7680
▁사다	-7681
고한	-7682
너스	-7683
▁개발을	-7684
▁1908	-7685
▁대칭	-7686
▁임신	-7687
▁청동	-7688
▁지역과	-7689
자였다	-7690
▁지어진	-7691
▁광범위한	-7692
▁작품이	-7693
▁접하고	-7694
▁동영	-7695
▁리듬	-7696
▁크림	-7697
지방법원	-7698
ud	-7699
▁자료를	-7700
▁기온	-7701
▁일곱	-7702
▁성공적으로	-7703
▁수천	-7704
▁메트로	-7705
▁무슬림	-7706
▁대답	-7707
▁원로	-7708
▁동기	-7709
문으로	-7710
▁명단에	-7711
▁County	-7712
실에	-7713
▁리가	-7714
▁배제	-7715
▁이었다	-7716
주년	-7717
▁일환으로	-7718
▁막부	-7719
▁혁신	-7720
▁거슬러	-7721
▁관광객	-7722
아프리카	-7723
▁비로	-7724
▁야스	-7725
▁서일본	-7726
▁목숨을	-7727
다니	-7728
방에	-7729
▁스승	-7730
▁추락	-7731
▁폭탄	-7732
▁에스파	-7733
카르	-7734
▁내륙	-7735
보병	-7736
생산	-7737
▁결정을	-7738
복지	-7739
▁예로	-7740
▁과거에	-7741
▁마법	-7742
▁나열	-7743
▁찾는	-7744
▁과학적	-7745
▁4,	-7746
▁전승	-7747
▁군대는	-7748
편을	-7749
하라고	-7750
▁데뷔전을	-7751
▁당선되었다	-7752
▁손상	-7753
▁유아	-7754
▁힙합	-7755
▁주식회사	-7756
▁경전	-7757
하였을	-7758
팀이	-7759
레이드	-7760
▁뿐이다	-7761
그의	-7762
▁라운드	-7763
▁얼마나	-7764
▁그리스도	-7765
▁결과적으로	-7766
▁옆에	-7767
▁임금	-7768
데이트	-7769
▁시스템은	-7770
▁계획은	-7771
▁미국인	-7772
▁벌였다	-7773
▁의거	-7774
▁내용의	-7775
화학	-7776
▁아마추어	-7777
▁출전했다	-7778
▁대의	-7779
▁스톤	-7780
란다	-7781
보면	-7782
▁결과는	-7783
▁인간이	-7784
▁미나미	-7785
▁동시	-7786
▁유인	-7787
▁박근혜	-7788
▁시대에는	-7789
▁이야기가	-7790
릭스	-7791
▁아니고	-7792
▁차이를	-7793
공학	-7794
▁빨리	-7795
유산	-7796
▁차트에서	-7797
▁설치되었다	-7798
▁레닌	-7799
▁유키	-7800
식이다	-7801
▁트라이	-7802
주인	-7803
트롤	-7804
▁보좌	-7805
▁사제	-7806
▁계획이	-7807
▁구간은	-7808
▁이익을	-7809
▁빵	-7810
▁않도록	-7811
VD	-7812
▁공룡	-7813
▁미얀	-7814
▁인류	-7815
▁입대	-7816
▁KT	-7817
▁심한	-7818
조와	-7819
▁중심지	-7820
▁훈련을	-7821
▁우라	-7822
▁획득하였다	-7823
ip	-7824
론과	-7825
▁모로	-7826
반을	-7827
▁판타	-7828
▁the	-7829
석에	-7830
▁조약을	-7831
▁대구광역시	-7832
AR	-7833
▁레지	-7834
ist	-7835
▁발표되었다	-7836
▁흙	-7837
민이	-7838
▁피난	-7839
▁에스토	-7840
▁발생하였다	-7841
▁행정구역이다	-7842
▁돔	-7843
▁클로	-7844
▁경력을	-7845
▁선거에	-7846
▁빅토리아	-7847
▁핫	-7848
히고	-7849
▁변신	-7850
브를	-7851
▁내지	-7852
▁모델로	-7853
▁요구하는	-7854
말을	-7855
all	-7856
(3	-7857
사상	-7858
▁~)	-7859
▁타워	-7860
▁불리며	-7861
▁오디션	-7862
▁이곳에서	-7863
▁타입	-7864
▁지표	-7865
들과의	-7866
▁아르메니아	-7867
▁직무	-7868
▁마스터	-7869
▁위기에	-7870
왔고	-7871
▁가해	-7872
▁충분한	-7873
▁모험	-7874
▁보인	-7875
액을	-7876
▁전향	-7877
▁항구	-7878
▁때때로	-7879
▁쪽으로	-7880
▁고시	-7881
▁역전	-7882
▁조기	-7883
과도	-7884
▁별도로	-7885
▁스펙트럼	-7886
▁≪	-7887
-10	-7888
▁했다고	-7889
▁호남	-7890
▁초상	-7891
▁정리한	-7892
▁활동이	-7893
▁전의	-7894
▁능력이	-7895
(17	-7896
션을	-7897
증이	-7898
쪽의	-7899
▁옛날	-7900
작은	-7901
▁떠난	-7902
▁자손	-7903
터로	-7904
▁브레이	-7905
▁전체의	-7906
▁관점에서	-7907
▁이세	-7908
▁빌딩	-7909
▁막대한	-7910
▁이곳에	-7911
▁모순	-7912
▁코스	-7913
▁당했다	-7914
▁생각했다	-7915
▁최상	-7916
▁해병	-7917
▁군대가	-7918
▁분야의	-7919
▁얇	-7920
공의	-7921
단계	-7922
▁야기	-7923
시켰고	-7924
▁운항	-7925
▁레이블	-7926
▁아직도	-7927
WE	-7928
바흐	-7929
타임	-7930
종이다	-7931
적이었다	-7932
▁칙	-7933
▁캐나다의	-7934
53	-7935
▁쿼	-7936
▁분산	-7937
투아니아	-7938
▁국가에서	-7939
▁순위	-7940
▁회색	-7941
▁측은	-7942
▁g	-7943
▁협상	-7944
▁그중	-7945
기이다	-7946
뱅크	-7947
▁당해	-7948
▁목포	-7949
▁적대	-7950
▁교향곡	-7951
마자	-7952
▁안양	-7953
▁위상	-7954
▁질환	-7955
페이지	-7956
▁쏟	-7957
▁흩	-7958
메르	-7959
코프	-7960
플러	-7961
▁무인	-7962
▁익스	-7963
▁해제	-7964
▁유물	-7965
▁친척	-7966
출을	-7967
▁웨이	-7968
▁입사	-7969
그로	-7970
▁원형	-7971
▁1906	-7972
▁예루살렘	-7973
▁위치하며	-7974
아를	-7975
▁가질	-7976
년으로	-7977
▁국가를	-7978
았을	-7979
▁잃고	-7980
▁찾을	-7981
▁합동	-7982
▁역이	-7983
▁데리고	-7984
▁말하고	-7985
▁세계적인	-7986
▁아틀레	-7987
소수	-7988
나라를	-7989
▁구간이	-7990
▁두드러	-7991
재는	-7992
▁비잔	-7993
▁폐기	-7994
▁후반에	-7995
▁냈다	-7996
▁성벽	-7997
▁실패했다	-7998
▁일원으로	-7999
티는	-8000
티스	-8001
편이	-8002
▁내내	-8003
▁건물이	-8004
간을	-8005
민당	-8006
병이	-8007
▁가야	-8008
▁운동의	-8009
스테이션	-8010
애나	-8011
업에	-8012
전기	-8013
▁140	-8014
▁종로	-8015
▁우루	-8016
▁자전거	-8017
가루	-8018
▁테오	-8019
▁파울	-8020
재의	-8021
▁타이틀을	-8022
▁시를	-8023
▁우승에	-8024
▁주장이	-8025
하가	-8026
▁천체	-8027
경기를	-8028
▁막아	-8029
▁거주하는	-8030
니를	-8031
▁말은	-8032
▁확인할	-8033
▁공동으로	-8034
▁에피소드	-8035
루미	-8036
▁염색	-8037
▁버리고	-8038
데스리가	-8039
▁발효	-8040
▁플레	-8041
MS	-8042
▁왕립	-8043
▁지방에	-8044
▁캘리포니아주	-8045
▁목격	-8046
년대부터	-8047
▁독자적인	-8048
▁많고	-8049
▁상영	-8050
▁점은	-8051
마리	-8052
▁학교를	-8053
▁툴	-8054
소리	-8055
▁영광	-8056
▁충족	-8057
▁해임	-8058
▁편지를	-8059
급의	-8060
▁구상	-8061
▁피렌	-8062
Ch	-8063
▁힘이	-8064
▁있으면	-8065
▁야생	-8066
▁우수한	-8067
▁은퇴한	-8068
▁곁	-8069
하러	-8070
▁외계	-8071
▁적색	-8072
▁사용을	-8073
▁짙	-8074
▁간접	-8075
▁재위	-8076
▁재즈	-8077
▁머리를	-8078
업이	-8079
▁모집	-8080
▁연계	-8081
악의	-8082
▁레인	-8083
해진다	-8084
▁최종적으로	-8085
주곡	-8086
▁못해	-8087
▁일부로	-8088
▁저택	-8089
▁지배를	-8090
▁크기의	-8091
▁크로스	-8092
민족행위	-8093
둥이	-8094
물질	-8095
센트	-8096
초의	-8097
▁넥	-8098
범죄	-8099
오리	-8100
회로	-8101
▁비틀	-8102
▁그동안	-8103
▁선제	-8104
▁아울러	-8105
받지	-8106
통일	-8107
▁시스템의	-8108
▁역사적으로	-8109
▁근처의	-8110
▁요소를	-8111
▁일본이	-8112
▁좋아하는	-8113
현이	-8114
▁예능	-8115
▁과학자	-8116
돌프	-8117
▁자리에서	-8118
됐으며	-8119
▁밴드의	-8120
조판서	-8121
▁명칭이	-8122
▁마르크스	-8123
▁장갑	-8124
▁낳았다	-8125
▁뱀	-8126
함으로	-8127
▁카메라	-8128
▁카자흐	-8129
▁열어	-8130
▁아들을	-8131
▁간단한	-8132
▁물리학	-8133
▁다룬	-8134
▁대지	-8135
▁부통령	-8136
▁불만을	-8137
▁않는다는	-8138
▁마시	-8139
▁카페	-8140
류로	-8141
지대	-8142
▁앨범을	-8143
군사	-8144
▁사령관	-8145
▁자격을	-8146
ong	-8147
▁모르	-8148
▁발생할	-8149
▁담당하는	-8150
코가	-8151
▁제국이	-8152
▁티베트	-8153
▁애플리케이션	-8154
▁뤼	-8155
▁책봉	-8156
▁게임은	-8157
▁전두	-8158
▁필립	-8159
페이스	-8160
▁원자력	-8161
▁딜	-8162
▁공무원	-8163
▁다큐멘	-8164
▁잘못된	-8165
공동	-8166
▁없애	-8167
▁한국인	-8168
IC	-8169
▁사양	-8170
▁전임	-8171
▁이적했다	-8172
▁연루	-8173
▁융합	-8174
산에서	-8175
▁시작했으며	-8176
이사	-8177
▁팽창	-8178
58	-8179
▁빛을	-8180
▁순서	-8181
▁들어와	-8182
▁퀴	-8183
▁1.	-8184
▁나라를	-8185
▁부정적인	-8186
▁업데이트	-8187
▁대로	-8188
▁배우이다	-8189
PS	-8190
검찰	-8191
회와	-8192
▁가미	-8193
▁된다는	-8194
글로	-8195
▁급진	-8196
▁어릴	-8197
▁일관	-8198
▁좌익	-8199
▁아우구	-8200
광역시의	-8201
방이	-8202
▁가라	-8203
▁전원	-8204
▁정벌	-8205
▁사로잡	-8206
형과	-8207
▁전투가	-8208
▁보살	-8209
작을	-8210
▁개념은	-8211
▁모듈	-8212
▁중이던	-8213
▁지지하는	-8214
자연	-8215
▁나선	-8216
▁창간	-8217
클라	-8218
▁영주	-8219
▁기록하고	-8220
▁일로	-8221
▁근거로	-8222
▁연구가	-8223
▁정치인	-8224
▁휩	-8225
▁다가	-8226
▁치료를	-8227
▁가능하게	-8228
▁목적은	-8229
▁잊	-8230
변을	-8231
▁대만	-8232
▁때도	-8233
▁합리	-8234
▁지역이다	-8235
▁꺾고	-8236
▁힌두	-8237
▁북쪽에	-8238
▁고등학교이다	-8239
▁움직임	-8240
클린	-8241
▁하나를	-8242
글라	-8243
▁겸임	-8244
▁그랑	-8245
권으로	-8246
▁돌아오	-8247
▁클래식	-8248
였기	-8249
▁1/	-8250
▁구마	-8251
▁경기장	-8252
▁최근에	-8253
번호	-8254
스톤	-8255
▁문화재자료	-8256
소한	-8257
▁왕위	-8258
▁라이프	-8259
▁되었으나	-8260
▁안드로이드	-8261
본이	-8262
▁성의	-8263
▁여동생	-8264
▁원래의	-8265
▁서독	-8266
▁고양이	-8267
▁발견했다	-8268
츠와	-8269
▁경고	-8270
▁충격	-8271
▁어렵다	-8272
▁깔	-8273
림을	-8274
▁악화	-8275
▁기업이	-8276
▁리눅	-8277
▁타원	-8278
성한	-8279
▁건담	-8280
프랑스	-8281
▁리그에	-8282
▁언어로	-8283
▁쿠바	-8284
▁남한	-8285
▁말할	-8286
▁시조	-8287
▁투어	-8288
▁캡	-8289
▁험	-8290
▁보물	-8291
▁있다면	-8292
▁입단하였다	-8293
▁사유	-8294
▁세균	-8295
▁기타리스트	-8296
▁선형	-8297
▁아웃	-8298
▁이외에	-8299
56	-8300
ED	-8301
▁반사	-8302
▁하우스	-8303
51	-8304
음은	-8305
일리	-8306
▁마카	-8307
▁취약	-8308
▁곳곳	-8309
▁달아	-8310
▁전통적으로	-8311
▁후의	-8312
▁코치로	-8313
▁주니어	-8314
▁사람에게	-8315
ge	-8316
▁당한	-8317
▁일본어	-8318
▁추가되었다	-8319
▁탱	-8320
아와	-8321
스트는	-8322
▁끝났다	-8323
高等學校	-8324
스파	-8325
▁사이에는	-8326
▁컸	-8327
지사	-8328
▁주제로	-8329
▁뮤직비디오	-8330
▁레코드	-8331
▁시기는	-8332
즈카	-8333
▁입문	-8334
▁적을	-8335
▁통화	-8336
판으로	-8337
▁구체적인	-8338
▁이치	-8339
▁이론은	-8340
▁읍	-8341
▁머무	-8342
온다	-8343
▁평생	-8344
▁삶의	-8345
▁이복	-8346
▁인근에	-8347
▁조치를	-8348
▁대한제국	-8349
▁섬유	-8350
▁진단	-8351
▁한동안	-8352
건은	-8353
스와의	-8354
▁방송된	-8355
편에	-8356
▁발족	-8357
드라마	-8358
클럽	-8359
대학원	-8360
▁서식한다	-8361
▁법무	-8362
▁현급	-8363
자이너	-8364
▁이명박	-8365
▁동남아시아	-8366
다이라	-8367
게는	-8368
항은	-8369
▁섭취	-8370
▁후쿠시마	-8371
▁굉	-8372
▁길이가	-8373
▁프리미어리그	-8374
차별	-8375
▁애틀	-8376
▁결승전	-8377
▁제국은	-8378
진흥	-8379
▁인증	-8380
▁하천	-8381
▁승리로	-8382
▁합법	-8383
▁드래곤	-8384
▁사용해	-8385
▁활성화	-8386
▁마라	-8387
▁맞는	-8388
▁사장	-8389
▁유성	-8390
▁테마	-8391
▁람	-8392
니까	-8393
▁애국	-8394
시민	-8395
▁무료	-8396
롤라	-8397
▁동서	-8398
이라면	-8399
칸센	-8400
▁비평가	-8401
미와	-8402
▁동경	-8403
▁말한	-8404
▁지목	-8405
▁번뇌	-8406
▁약한	-8407
▁130	-8408
59	-8409
졌을	-8410
▁미네	-8411
차전에서	-8412
▁미시	-8413
▁향한	-8414
▁면에서	-8415
▁이승만	-8416
디의	-8417
분은	-8418
석과	-8419
▁마친	-8420
▁금메달	-8421
▁현의	-8422
▁MVP	-8423
▁내부의	-8424
▁시기의	-8425
▁지중해	-8426
▁철도의	-8427
▁운행하는	-8428
져서	-8429
▁모노	-8430
▁포함해	-8431
▁히가시	-8432
if	-8433
미디어	-8434
▁포유	-8435
▁서서히	-8436
▁센트럴	-8437
작가	-8438
카스	-8439
▁브로	-8440
▁선언했다	-8441
▁언어를	-8442
안군	-8443
▁조용	-8444
▁제도의	-8445
▁자유롭게	-8446
겼고	-8447
▁고베	-8448
▁k	-8449
▁락	-8450
▁양식	-8451
▁엔진을	-8452
▁정도가	-8453
프스	-8454
현을	-8455
▁우리나라	-8456
ha	-8457
▁신사	-8458
▁스웨덴의	-8459
▁복수	-8460
▁음악가	-8461
▁말하였다	-8462
▁사용자가	-8463
산맥	-8464
용이	-8465
▁기재	-8466
▁무력	-8467
▁테크	-8468
▁항공기	-8469
57	-8470
▁간다	-8471
▁몰락	-8472
▁박탈	-8473
▁반환	-8474
▁알려지지	-8475
▁전투에	-8476
▁음반이다	-8477
▁대신에	-8478
▁김해	-8479
▁발라	-8480
▁채로	-8481
▁무늬	-8482
필드	-8483
▁51	-8484
▁섬의	-8485
▁이종	-8486
▁호르	-8487
SP	-8488
후보	-8489
▁기술이	-8490
▁대학원	-8491
▁목적을	-8492
▁발전에	-8493
▁조사를	-8494
▁후보에	-8495
켰다	-8496
▁적의	-8497
▁엔터테인먼트	-8498
▁퓨	-8499
▁결혼을	-8500
▁그랜드	-8501
▁유니버	-8502
▁맡았으며	-8503
르와	-8504
▁온도	-8505
▁기업의	-8506
규칙	-8507
르를	-8508
케이팅	-8509
스티벌	-8510
▁그룹의	-8511
▁구조의	-8512
중심	-8513
▁버지니아	-8514
청을	-8515
▁국토	-8516
▁아마도	-8517
▁성공적인	-8518
▁복구	-8519
SC	-8520
렸을	-8521
섬의	-8522
▁제휴	-8523
▁전투는	-8524
티움	-8525
▁벡터	-8526
▁우리의	-8527
▁동메달을	-8528
랑이	-8529
▁맞게	-8530
▁대결	-8531
▁부패	-8532
▁불렀	-8533
된다고	-8534
▁남쪽에	-8535
▁리드	-8536
▁명단	-8537
▁닿	-8538
▁부착	-8539
est	-8540
▁항해	-8541
▁세워졌다	-8542
54	-8543
▁곳이	-8544
▁상태이다	-8545
▁현상이	-8546
투쟁	-8547
▁남긴	-8548
▁백인	-8549
▁아니며	-8550
▁시마	-8551
▁중력	-8552
▁중화인민공화국의	-8553
러리	-8554
▁제약	-8555
▁가지게	-8556
▁이처럼	-8557
▁훌륭한	-8558
황후	-8559
▁고교	-8560
▁주한	-8561
▁지내고	-8562
▁진정한	-8563
▁알렉산더	-8564
▁젖	-8565
금융	-8566
▁유소년	-8567
의에	-8568
▁법원	-8569
▁피부	-8570
▁공략	-8571
▁군사적	-8572
▁컬럼비아	-8573
▁늘어나	-8574
장한	-8575
▁끝이	-8576
▁재발	-8577
리스토	-8578
시절	-8579
▁비극	-8580
▁예언	-8581
▁때로는	-8582
▁뒤인	-8583
▁의원이	-8584
▁교섭	-8585
▁흔들	-8586
음으로	-8587
▁플라스	-8588
▁어두운	-8589
▁본격적인	-8590
▁엉	-8591
스포츠	-8592
▁남아있다	-8593
▁응답	-8594
▁당의	-8595
역사	-8596
카를	-8597
St	-8598
▁남양	-8599
▁방식은	-8600
▁형태가	-8601
▁밸	-8602
▁아파트	-8603
▁은메달을	-8604
건이	-8605
▁금강	-8606
팀인	-8607
▁황후	-8608
▁콘서트	-8609
▁의지	-8610
금으로	-8611
▁속도로	-8612
▁꾀	-8613
용은	-8614
▁약칭	-8615
▁종전	-8616
▁착수	-8617
▁활약하였다	-8618
▁튜	-8619
▁52	-8620
▁1911	-8621
▁훼손	-8622
기획	-8623
▁측근	-8624
▁일본에서는	-8625
ran	-8626
즈키	-8627
▁정도이다	-8628
▁정원	-8629
현악	-8630
▁감지	-8631
▁끊임	-8632
렸던	-8633
▁신장	-8634
▁지속적인	-8635
▁도심	-8636
▁사용이	-8637
▁회사는	-8638
▁규정하고	-8639
민은	-8640
안으로	-8641
▁화려한	-8642
▁길고	-8643
▁포로	-8644
▁하나님의	-8645
▁떼	-8646
▁두개	-8647
▁법학	-8648
▁성균	-8649
▁시대를	-8650
시픽	-8651
테스	-8652
▁꼬리	-8653
▁프로그램은	-8654
▁낱	-8655
▁시작해	-8656
▁긍정적인	-8657
▁서남	-8658
▁조치	-8659
▁쟁	-8660
▁무효	-8661
▁상무	-8662
▁활동한	-8663
우치	-8664
▁한신	-8665
▁스토리	-8666
직한	-8667
▁브라우	-8668
▁사이클	-8669
색이	-8670
▁고조	-8671
▁여왕	-8672
▁프랜	-8673
▁교과	-8674
▁식별	-8675
▁호환	-8676
숙한	-8677
▁54	-8678
▁갑작	-8679
▁하노	-8680
▁둘러싼	-8681
~3	-8682
▁소나	-8683
▁달러를	-8684
소속	-8685
▁1904	-8686
경으로	-8687
▁뒤에는	-8688
▁득점을	-8689
▁일본군	-8690
식물	-8691
ill	-8692
▁청와	-8693
▁–	-8694
닉스	-8695
▁두번째	-8696
▁사용하며	-8697
▁크리스티	-8698
실록	-8699
▁쓴다	-8700
▁퇴각	-8701
▁중앙에	-8702
▁대폭	-8703
▁양도	-8704
▁기록에	-8705
▁북한의	-8706
▁있습니다	-8707
▁49	-8708
▁1896	-8709
▁졸업하였다	-8710
구리	-8711
ER	-8712
▁규제	-8713
란을	-8714
ber	-8715
▁어려움을	-8716
▁인물이다	-8717
▁얻기	-8718
▁지각	-8719
▁착륙	-8720
▁과정은	-8721
▁싫어	-8722
▁부흥	-8723
▁오고	-8724
▁장편	-8725
▁호칭	-8726
동에서	-8727
▁대서양	-8728
▁라이온	-8729
▁신칸센	-8730
▁황제가	-8731
수수	-8732
있고	-8733
▁부과	-8734
▁재단	-8735
▁사고로	-8736
▁사용하기	-8737
▁폼	-8738
매치	-8739
스러	-8740
진과	-8741
▁실용	-8742
▁자식	-8743
▁따르는	-8744
▁현존하는	-8745
▁귀환	-8746
▁정수	-8747
으로의	-8748
▁일찍이	-8749
▁소속되어	-8750
▁브라질의	-8751
▁사격	-8752
▁아베	-8753
▁시정촌	-8754
▁회의에서	-8755
▁상임	-8756
▁트럭	-8757
▁KBO	-8758
▁다루고	-8759
▁특수한	-8760
▁부분적으로	-8761
측의	-8762
패로	-8763
▁바가	-8764
▁작고	-8765
▁포인	-8766
인간	-8767
▁펄	-8768
▁랭킹	-8769
▁부품	-8770
▁비서	-8771
▁무대에	-8772
▁아니면	-8773
▁음반의	-8774
그리	-8775
년은	-8776
문관	-8777
▁점성	-8778
▁죽을	-8779
수엘	-8780
특히	-8781
▁얻는	-8782
▁여의	-8783
▁속도를	-8784
내에서	-8785
▁않았기	-8786
▁약물	-8787
받는다	-8788
▁구름	-8789
▁유닛	-8790
▁한국에서는	-8791
▁선진	-8792
▁또다시	-8793
▁민주주의	-8794
심한	-8795
▁가능하며	-8796
▁포괄	-8797
▁발견되는	-8798
ON	-8799
원군	-8800
▁살던	-8801
▁피고	-8802
▁운동이	-8803
조약	-8804
ast	-8805
▁게재	-8806
▁낮아	-8807
▁보내는	-8808
▁일했다	-8809
▁젤	-8810
바나	-8811
▁노력을	-8812
▁방식의	-8813
등에	-8814
연이	-8815
▁관통	-8816
▁급속	-8817
▁들은	-8818
▁커피	-8819
프에	-8820
▁등재	-8821
▁준공	-8822
▁개성	-8823
▁경북	-8824
▁여성이	-8825
▁제조업	-8826
ev	-8827
▁무선	-8828
▁마찰	-8829
▁라는	-8830
▁수단	-8831
▁현장	-8832
ive	-8833
▁첫번째	-8834
▁이미지를	-8835
▁껍	-8836
타나	-8837
▁무려	-8838
▁손자	-8839
▁여론	-8840
▁주문	-8841
저는	-8842
▁보충	-8843
▁콩고	-8844
교회의	-8845
▁의견이	-8846
▁플레이어	-8847
내기	-8848
▁등이다	-8849
▁사실은	-8850
▁일어날	-8851
▁마음작용	-8852
로동	-8853
▁()	-8854
▁전성	-8855
▁들어가는	-8856
▁학생들이	-8857
ian	-8858
세에게	-8859
▁통근	-8860
▁디자이너	-8861
발의	-8862
▁대주교	-8863
▁램	-8864
포스	-8865
▁맡게	-8866
▁관계로	-8867
▁판결을	-8868
▁각기	-8869
▁의장	-8870
어진다	-8871
▁본선의	-8872
이었다고	-8873
▁56	-8874
▁영국은	-8875
▁전부터	-8876
생이	-8877
원숭	-8878
▁경력	-8879
▁병력	-8880
▁주파	-8881
▁물에	-8882
▁마케팅	-8883
▁없으나	-8884
상으로는	-8885
▁정확하게	-8886
▁과거의	-8887
▁그림을	-8888
한을	-8889
바시	-8890
열이	-8891
▁차남	-8892
▁토대로	-8893
▁나가사키	-8894
▁도로이다	-8895
▁프로그램의	-8896
ry	-8897
보에	-8898
▁특징은	-8899
년대에는	-8900
견을	-8901
▁가장자	-8902
▁보여주고	-8903
SL	-8904
리타	-8905
트르	-8906
▁땅에	-8907
▁침해	-8908
▁박물관	-8909
▁시작된다	-8910
톤의	-8911
▁대우	-8912
▁승차	-8913
네스코	-8914
▁찾아가	-8915
▁지어졌다	-8916
병의	-8917
▁공용	-8918
▁부장	-8919
고속	-8920
조정	-8921
하우	-8922
▁따뜻	-8923
치면서	-8924
▁건너가	-8925
▁보상	-8926
니치	-8927
▁니가타	-8928
▁정부와	-8929
네의	-8930
오를	-8931
▁후보는	-8932
▁건물을	-8933
▁받기도	-8934
▁루트비히	-8935
▁메디	-8936
러시아	-8937
▁영화로	-8938
▁히어로	-8939
백을	-8940
▁밖의	-8941
행은	-8942
igh	-8943
▁둘은	-8944
▁후보를	-8945
▁1909	-8946
▁자발	-8947
▁타율	-8948
▁비공식	-8949
▁조직의	-8950
▁필라델	-8951
▁바티	-8952
▁서브	-8953
▁수치	-8954
▁계열의	-8955
▁돌아갔다	-8956
▁지점	-8957
▁특유의	-8958
위원회의	-8959
▁펴	-8960
주일	-8961
▁용산	-8962
▁좋다	-8963
▁체제를	-8964
▁연구하는	-8965
▁풀려	-8966
▁구조는	-8967
▁아나운	-8968
▁카이사	-8969
▁여기에는	-8970
▁끝나고	-8971
▁중심의	-8972
디아라비아	-8973
인들	-8974
현에	-8975
▁목표를	-8976
▁주축	-8977
등록	-8978
자본	-8979
▁이르고	-8980
천을	-8981
▁중순	-8982
▁700	-8983
▁이듬해인	-8984
님이	-8985
▁항일	-8986
▁프레임	-8987
▁지원한다	-8988
▁프랑스와	-8989
구역	-8990
▁WWE	-8991
▁후지와	-8992
▁보스니아	-8993
▁페루	-8994
▁달러의	-8995
▁하거나	-8996
▁교외	-8997
▁흐름	-8998
즈니스	-8999
▁생각된다	-9000
ect	-9001
▁며칠	-9002
서에서	-9003
우며	-9004
톨레	-9005
플라	-9006
▁무죄	-9007
▁한양	-9008
▁실험을	-9009
▁바꾸었다	-9010
▁뿌리	-9011
▁확인되었다	-9012
▁와카	-9013
▁과정에	-9014
▁일으키는	-9015
교로	-9016
▁댄스	-9017
▁디즈니	-9018
▁굵	-9019
▁공무	-9020
▁인조	-9021
▁재편	-9022
▁110	-9023
▁크기는	-9024
(6	-9025
▁법을	-9026
▁바이올린	-9027
▁제외하고는	-9028
▁사료	-9029
▁사육	-9030
▁작품에	-9031
▁학교에	-9032
▁시작하는	-9033
▁식량	-9034
터에	-9035
해방	-9036
해주	-9037
▁누르고	-9038
▁사상을	-9039
▁내리	-9040
▁명백	-9041
▁모니	-9042
▁250	-9043
AC	-9044
곡은	-9045
▁주말	-9046
▁왕위를	-9047
▁재산을	-9048
▁알바니아	-9049
학회	-9050
▁번호는	-9051
▁선거를	-9052
▁분리되어	-9053
▁활약했다	-9054
▁마케도니아	-9055
동시	-9056
▁날개	-9057
▁내장	-9058
▁달의	-9059
화하고	-9060
▁배를	-9061
▁페이지	-9062
eg	-9063
▁아래로	-9064
시피	-9065
형태	-9066
▁임상	-9067
▁추정되는	-9068
▁뷰	-9069
▁외곽	-9070
팀은	-9071
▁비가	-9072
▁줄어	-9073
▁촉구	-9074
▁성공한	-9075
수산	-9076
▁못할	-9077
▁여덟	-9078
▁당대	-9079
▁네덜란드의	-9080
▁근접	-9081
▁배정	-9082
온의	-9083
▁잃은	-9084
▁최신	-9085
▁캠페	-9086
▁토마스	-9087
▁앨런	-9088
▁이토	-9089
▁느낀	-9090
▁다이아	-9091
▁드라마이다	-9092
▁AC	-9093
▁약화	-9094
▁쫓겨	-9095
▁해적	-9096
▁지점에	-9097
▁제작되었다	-9098
▁탕	-9099
분야	-9100
▁역과	-9101
▁이정	-9102
▁거기에	-9103
▁신속	-9104
▁친일반	-9105
▁디젤	-9106
▁빌헬	-9107
누리	-9108
▁강수	-9109
▁메가	-9110
▁알코	-9111
▁타카	-9112
▁유니폼	-9113
▁주에서	-9114
▁해군의	-9115
▁아이를	-9116
바이러스	-9117
공이	-9118
▁건의	-9119
▁초창	-9120
▁아들이다	-9121
곡이	-9122
널드	-9123
즈에	-9124
▁돌연	-9125
▁싶어	-9126
▁쿠르	-9127
▁한강	-9128
▁소재로	-9129
▁연방의	-9130
▁특이한	-9131
자원	-9132
▁조선총독부	-9133
리크	-9134
▁오가	-9135
▁사용될	-9136
마치	-9137
▁술탄	-9138
리시	-9139
▁걱	-9140
per	-9141
▁차기	-9142
효소	-9143
있으며	-9144
▁그렇지	-9145
▁진출했다	-9146
반응	-9147
사추	-9148
▁각본	-9149
▁카탈	-9150
스테르	-9151
▁목록은	-9152
란의	-9153
토스	-9154
▁가요	-9155
▁복사	-9156
▁왕으로	-9157
▁정책에	-9158
관찰	-9159
네는	-9160
▁태조	-9161
▁발견한	-9162
▁조건으로	-9163
디스	-9164
디에	-9165
평균	-9166
▁고분	-9167
▁불리기도	-9168
1)	-9169
▁BBC	-9170
▁죽이고	-9171
▁석탄	-9172
▁의원은	-9173
▁팔레스타	-9174
명인	-9175
▁관습	-9176
▁임명되어	-9177
▁자신에게	-9178
▁얘	-9179
아리	-9180
테쓰	-9181
▁무라	-9182
과이	-9183
슨과	-9184
여래	-9185
홈런	-9186
▁안쪽	-9187
▁인정받아	-9188
▁일본으로	-9189
▁프랑스에서	-9190
▁료	-9191
▁값을	-9192
▁메모	-9193
▁스리	-9194
라이더	-9195
생으로	-9196
아메리카	-9197
란트	-9198
행에	-9199
▁스틸	-9200
▁전에는	-9201
▁정교회	-9202
▁사우디아라비아	-9203
▁마산	-9204
▁바위	-9205
▁밝혔	-9206
▁중구	-9207
▁명예의	-9208
▁물리적	-9209
격이	-9210
▁SN	-9211
▁이자	-9212
학교에	-9213
▁어려움	-9214
▁르네상	-9215
▁무거운	-9216
▁개업	-9217
▁쇼군	-9218
▁이오	-9219
▁일조	-9220
▁축제	-9221
이라도	-9222
▁모두가	-9223
▁사이타마	-9224
▁부르며	-9225
▁중요하다	-9226
TC	-9227
란이	-9228
레의	-9229
범한	-9230
우와	-9231
바닥	-9232
실과	-9233
아스	-9234
자도	-9235
▁김영삼	-9236
▁1915	-9237
▁사카	-9238
▁집으로	-9239
▁원산	-9240
OC	-9241
▁는	-9242
초에	-9243
▁도구	-9244
▁자율	-9245
불교	-9246
▁53	-9247
▁낙선	-9248
▁여행을	-9249
하니	-9250
▁점유	-9251
▁나이트	-9252
박스	-9253
▁메르	-9254
▁반박	-9255
희는	-9256
-15	-9257
▁공학	-9258
▁추모	-9259
▁모델을	-9260
▁문서는	-9261
▁움직이는	-9262
▁전쟁은	-9263
▁이순	-9264
▁이틀	-9265
▁수신	-9266
▁타운	-9267
하였다는	-9268
▁평소	-9269
▁용이	-9270
▁된다고	-9271
▁시간은	-9272
▁시즌에는	-9273
▁털이	-9274
▁들어오	-9275
▁조직을	-9276
▁전쟁으로	-9277
▁도호쿠	-9278
▁수행하는	-9279
▁친일반민족행위	-9280
가스	-9281
▁삼고	-9282
▁외무	-9283
▁소수의	-9284
▁일어났	-9285
▁에스토니아	-9286
우옌	-9287
▁가벼	-9288
▁주와	-9289
▁남부의	-9290
▁우연히	-9291
▁베네수엘	-9292
▁+	-9293
▁라트	-9294
▁개발된	-9295
▁이곳은	-9296
▁주립	-9297
▁출전해	-9298
▁기록하여	-9299
▁봉해졌다	-9300
▁파리에서	-9301
▁곰	-9302
회장	-9303
미에	-9304
▁달린	-9305
▁아가	-9306
에너	-9307
▁쉬운	-9308
▁애틀랜	-9309
▁의사를	-9310
▁비슷하다	-9311
신인	-9312
▁영역을	-9313
▁위협을	-9314
▁오키나와	-9315
1,	-9316
▁턱	-9317
따라	-9318
▁대처	-9319
▁친정	-9320
크스	-9321
▁대외	-9322
▁멈추	-9323
▁오렌	-9324
▁개혁을	-9325
▁공동체	-9326
▁하와이	-9327
기관이다	-9328
▁팩	-9329
▁일렉	-9330
▁유네스코	-9331
모로	-9332
▁날짜	-9333
▁아트	-9334
▁발매한	-9335
▁연애	-9336
▁화면	-9337
▁진출하였다	-9338
▁밟	-9339
▁자신과	-9340
▁총괄	-9341
이었기	-9342
▁거리가	-9343
▁국가에	-9344
▁전한다	-9345
▁국가대표팀의	-9346
▁공전	-9347
▁미토	-9348
자들에	-9349
라미	-9350
색은	-9351
▁모음	-9352
▁몰려	-9353
▁이지	-9354
▁독일은	-9355
양군	-9356
▁바꿔	-9357
▁베타	-9358
▁만났다	-9359
▁성질을	-9360
▁이스트	-9361
너의	-9362
▁관직	-9363
▁좌절	-9364
▁풀어	-9365
▁강제로	-9366
▁개최되었다	-9367
io	-9368
▁웰	-9369
▁펜실	-9370
▁운행을	-9371
▁형식을	-9372
▁잦	-9373
▁95	-9374
▁명문	-9375
▁1913	-9376
▁동구	-9377
▁차지한	-9378
▁하였는데	-9379
인명	-9380
▁모시	-9381
▁사회에	-9382
▁설립했다	-9383
▁일제강점기	-9384
▁정찰	-9385
주년을	-9386
▁측면에서	-9387
▁교도	-9388
▁실종	-9389
▁척추	-9390
▁할당	-9391
하였기	-9392
▁플레이스테이션	-9393
▁꽤	-9394
▁종의	-9395
▁앨범은	-9396
▁지명을	-9397
독일	-9398
▁전두환	-9399
▁기생	-9400
▁성별	-9401
해와	-9402
▁기동	-9403
▁민속	-9404
▁급격히	-9405
▁중심이	-9406
▁있었다는	-9407
받을	-9408
이거나	-9409
▁일시적으로	-9410
세스	-9411
▁기간에	-9412
▁판타지	-9413
▁진영	-9414
▁분류된다	-9415
▁몸길	-9416
▁치열	-9417
▁점이다	-9418
세츠	-9419
hPa	-9420
▁제사	-9421
▁트윈	-9422
▁노르웨	-9423
설이	-9424
타케	-9425
▁나아	-9426
▁라우	-9427
▁아세	-9428
▁액체	-9429
▁생기는	-9430
만명	-9431
턴은	-9432
▁가사	-9433
▁진도	-9434
▁창시	-9435
▁경우를	-9436
▁객관	-9437
▁특급	-9438
▁DVD	-9439
▁대전광역시	-9440
목이	-9441
석기	-9442
▁끌려	-9443
▁분야에	-9444
모니	-9445
▁SC	-9446
▁매개	-9447
성이다	-9448
중에서	-9449
▁속도가	-9450
▁체계를	-9451
챌린	-9452
▁외의	-9453
▁지금도	-9454
▁활약하고	-9455
AM	-9456
수사	-9457
층은	-9458
▁짓고	-9459
▁백악	-9460
▁추증	-9461
중에는	-9462
▁결과에	-9463
▁원자로	-9464
▁한국방송	-9465
▁되었	-9466
▁창업	-9467
▁영향력	-9468
ok	-9469
소득	-9470
작품	-9471
▁받기	-9472
▁기록된	-9473
▁있어서는	-9474
지붕	-9475
▁시집	-9476
▁1500	-9477
▁아니지만	-9478
▁카자흐스탄	-9479
더는	-9480
▁동지	-9481
레를	-9482
열의	-9483
책임	-9484
▁아는	-9485
▁안타	-9486
▁죄를	-9487
▁임의의	-9488
▁전세계	-9489
▁이루었다	-9490
▁셈	-9491
▁앓	-9492
▁공의	-9493
▁우즈	-9494
▁포맷	-9495
그리고	-9496
▁먹이를	-9497
▁차례로	-9498
▁연속으로	-9499
▁정치인이다	-9500
▁요르	-9501
▁믹	-9502
▁세대	-9503
▁수평	-9504
▁2.	-9505
▁것인	-9506
▁쓰인	-9507
▁캄보	-9508
▁원내	-9509
하려면	-9510
.5%	-9511
▁아인	-9512
▁피에	-9513
▁되었지만	-9514
목의	-9515
있던	-9516
▁1895	-9517
민을	-9518
▁바그	-9519
▁수수	-9520
▁장난	-9521
▁탓에	-9522
바야	-9523
▁내보	-9524
▁듯한	-9525
▁무용	-9526
▁참가하는	-9527
▁평행	-9528
태평양	-9529
▁비슷하게	-9530
▁급행	-9531
▁건물의	-9532
▁스페셜	-9533
▁가면	-9534
▁시설이	-9535
▁하버드	-9536
▁베이스볼	-9537
▁깨달	-9538
▁가난한	-9539
고도	-9540
디가	-9541
▁일에	-9542
번을	-9543
항에	-9544
▁산림	-9545
▁안장	-9546
▁나이가	-9547
자책	-9548
▁불을	-9549
정부의	-9550
▁언제나	-9551
▁지나치게	-9552
▁리투아니아	-9553
도사	-9554
▁고도	-9555
▁꿈을	-9556
▁디비시	-9557
▁전체가	-9558
▁소유하고	-9559
▁박영	-9560
▁문재인	-9561
블로	-9562
억원	-9563
▁누군	-9564
▁침몰	-9565
▁한국에	-9566
시타	-9567
▁진행된	-9568
▁트레이드	-9569
52	-9570
▁안의	-9571
▁캠퍼	-9572
▁눈이	-9573
▁어울	-9574
▁수록되어	-9575
▁유출	-9576
▁편리	-9577
▁포크	-9578
▁다리를	-9579
▁도움으로	-9580
▁유신	-9581
▁계절	-9582
공산당	-9583
▁원작으로	-9584
▁템	-9585
▁치명	-9586
▁이상으로	-9587
밀리	-9588
▁의뢰	-9589
▁식으로	-9590
▁지방에서	-9591
진에	-9592
▁동화	-9593
▁첨가	-9594
▁멤버로	-9595
하겠다는	-9596
▁롬	-9597
▁옷을	-9598
▁중독	-9599
▁뜻의	-9600
▁신규	-9601
투를	-9602
▁이마	-9603
ys	-9604
결합	-9605
▁오세	-9606
▁시절부터	-9607
▁군을	-9608
▁사직	-9609
▁장려	-9610
▁서울에서	-9611
▁빛의	-9612
▁엔지	-9613
▁독일에서	-9614
▁지냈으며	-9615
qu	-9616
▁둥근	-9617
▁보니	-9618
▁분배	-9619
베트남	-9620
▁코무네	-9621
▁했다는	-9622
▁고성	-9623
▁경제학	-9624
▁형식의	-9625
▁IS	-9626
▁동독	-9627
▁선을	-9628
▁입체	-9629
▁팀에	-9630
▁학부	-9631
▁맡았고	-9632
두는	-9633
러가	-9634
토시	-9635
▁재활	-9636
▁캐스팅	-9637
▁형태는	-9638
▁고무	-9639
▁신생	-9640
커니즘	-9641
▁마을의	-9642
▁심판	-9643
▁전당	-9644
가에서	-9645
것은	-9646
소스	-9647
▁통칭	-9648
▁항공모	-9649
▁경비	-9650
▁향후	-9651
▁검은색	-9652
▁되었을	-9653
집합	-9654
▁미카	-9655
▁받았으나	-9656
▁상징하는	-9657
▁시점에서	-9658
▁이어진다	-9659
▁고발	-9660
▁다음에	-9661
러의	-9662
▁강경	-9663
▁경사	-9664
▁번호	-9665
▁구조가	-9666
▁파운드	-9667
▁준우승을	-9668
리자	-9669
▁거론	-9670
▁소환	-9671
▁최저	-9672
년간의	-9673
화하여	-9674
▁생각하는	-9675
▁이긴	-9676
스트의	-9677
》(19	-9678
▁브라이언	-9679
여성	-9680
▁에우	-9681
▁출시된	-9682
▁생각한다	-9683
▁요구했다	-9684
사태	-9685
▁고지	-9686
▁전한	-9687
▁찾기	-9688
▁치러진	-9689
▁활동은	-9690
느러	-9691
▁회담	-9692
▁우주의	-9693
▁간부	-9694
▁창건	-9695
▁탈환	-9696
▁소실	-9697
▁자바	-9698
▁민주화	-9699
츠키	-9700
▁전념	-9701
▁엘리베이	-9702
미로	-9703
장관	-9704
▁위기	-9705
▁출토	-9706
▁한화	-9707
라이트	-9708
▁구조로	-9709
▁마오	-9710
▁무신	-9711
▁조상	-9712
▁트레	-9713
▁나이지	-9714
▁격퇴	-9715
▁요소가	-9716
▁이에야	-9717
유는	-9718
▁부를	-9719
▁사적	-9720
▁폴란드의	-9721
▁숨겨	-9722
▁과학기술	-9723
))	-9724
▁휠	-9725
▁것에서	-9726
만원	-9727
▁화살	-9728
▁개발에	-9729
▁인물이	-9730
▁올림	-9731
▁유죄	-9732
▁철학자	-9733
▁햄	-9734
▁써서	-9735
▁화재	-9736
지방선거	-9737
▁실질적인	-9738
층이	-9739
히로	-9740
▁두루	-9741
▁어드	-9742
▁마을을	-9743
▁않았으나	-9744
▁권위	-9745
▁차가	-9746
▁한쪽	-9747
항으로	-9748
▁군대의	-9749
▁라틴어	-9750
▁둘러싸고	-9751
▁시작되어	-9752
▁자본주의	-9753
▁극히	-9754
▁기호	-9755
▁신하	-9756
▁쌓아	-9757
▁전인	-9758
▁주차	-9759
▁아버지와	-9760
수아	-9761
▁57	-9762
▁58	-9763
▁동년	-9764
▁사르	-9765
▁교차로	-9766
▁포인트	-9767
풍을	-9768
▁OS	-9769
▁로맨	-9770
▁인플	-9771
▁전세	-9772
▁스타크래프트	-9773
오르	-9774
▁내고	-9775
▁다녀	-9776
▁열고	-9777
시까지	-9778
해지는	-9779
▁연결된	-9780
▁인정하지	-9781
▁슐	-9782
기준	-9783
▁미하	-9784
원들이	-9785
▁인물을	-9786
▁주장하고	-9787
주기	-9788
▁보완	-9789
▁동명의	-9790
▁기요	-9791
▁기체	-9792
▁브래	-9793
▁증기	-9794
▁푸른	-9795
원들은	-9796
▁하인리히	-9797
바이잔	-9798
▁총재	-9799
▁소설을	-9800
유키	-9801
▁Ch	-9802
▁가마쿠라	-9803
▁SF	-9804
▁아이템	-9805
▁선수들이	-9806
▁연결된다	-9807
티의	-9808
▁UN	-9809
▁경험이	-9810
▁조별리그	-9811
▁쿨	-9812
수인	-9813
지나	-9814
▁관중	-9815
▁것보다	-9816
▁컨트롤	-9817
함의	-9818
▁분광	-9819
▁챌린	-9820
▁신라의	-9821
▁자체는	-9822
▁일도	-9823
케이션	-9824
▁NHK	-9825
▁대회의	-9826
▁공직	-9827
▁대승	-9828
▁종결	-9829
해왔다	-9830
▁음식을	-9831
▁대통령을	-9832
▁자이언츠	-9833
▁전례	-9834
▁전역	-9835
▁나섰다	-9836
▁마쳤다	-9837
▁의회는	-9838
▁충격을	-9839
▁생각하고	-9840
제르바이잔	-9841
▁내린	-9842
▁출력	-9843
▁클린	-9844
▁현저	-9845
▁후일	-9846
▁동물의	-9847
▁부족한	-9848
제이	-9849
카라	-9850
ort	-9851
▁리버풀	-9852
▁오디오	-9853
▁트랜스	-9854
▁스파르타	-9855
▁a	-9856
▁성씨	-9857
▁비용을	-9858
사추세츠	-9859
반도	-9860
▁버튼	-9861
브리지	-9862
트리올	-9863
▁공사가	-9864
▁토머스	-9865
▁검증	-9866
▁병행	-9867
▁끓	-9868
르노	-9869
파크	-9870
▁걸어	-9871
▁모방	-9872
▁페스티벌	-9873
▁칩	-9874
▁수업	-9875
▁존중	-9876
▁필라델피아	-9877
ea	-9878
▁구미	-9879
▁바뀐	-9880
▁시점	-9881
우주연	-9882
▁출연한	-9883
:1	-9884
ep	-9885
▁US	-9886
▁군단	-9887
▁반지	-9888
▁좌파	-9889
▁제품을	-9890
▁남아있는	-9891
▁평등	-9892
▁출산	-9893
▁인접한	-9894
려서	-9895
전사	-9896
▁로빈	-9897
▁별칭	-9898
▁화제가	-9899
▁활발한	-9900
▁디스플레이	-9901
▁세로	-9902
▁예배	-9903
▁이글	-9904
▁이슈	-9905
리면서	-9906
▁키프로	-9907
▁학교에서	-9908
목은	-9909
연속	-9910
▁바닷	-9911
사령부	-9912
▁나갔다	-9913
▁노래는	-9914
음과	-9915
▁HD	-9916
▁내외	-9917
▁별의	-9918
량으로	-9919
▁자금을	-9920
▁정신적	-9921
▁코리아	-9922
▁들이	-9923
▁이리	-9924
▁이원	-9925
슬란드	-9926
▁가나가와	-9927
기기	-9928
티모	-9929
▁막내	-9930
▁맞지	-9931
▁장의	-9932
학위를	-9933
▁각본을	-9934
▁1916	-9935
▁기록하면서	-9936
TO	-9937
ck	-9938
▁봐	-9939
고쿠	-9940
서야	-9941
적에	-9942
▁단종	-9943
▁번식	-9944
▁중계	-9945
▁스타일	-9946
▁펀	-9947
되지는	-9948
셰비	-9949
오늘	-9950
▁쇼핑	-9951
▁지혜	-9952
▁물고기	-9953
▁선교사	-9954
란히	-9955
▁먹고	-9956
▁봉사	-9957
▁대학을	-9958
▁칭호를	-9959
▁삿	-9960
무기	-9961
▁양키	-9962
▁폐위	-9963
티에	-9964
▁신용	-9965
▁비즈니스	-9966
▁메리	-9967
▁직면	-9968
▁초연	-9969
▁끝까지	-9970
▁동로마	-9971
▁드러나	-9972
▁서쪽에	-9973
▁투르크	-9974
능력	-9975
▁매달	-9976
▁본사는	-9977
초를	-9978
▁깨닫	-9979
▁우울	-9980
진으로	-9981
▁하나였다	-9982
야가	-9983
?""	-9984
▁단단	-9985
▁드럼	-9986
▁에릭	-9987
달라고	-9988
▁국가로	-9989
▁연고로	-9990
▁연구소	-9991
작곡	-9992
▁부른	-9993
▁풋볼	-9994
채를	-9995
▁그러자	-9996
▁총선거	-9997
▁다큐멘터리	-9998
▁야당	-9999
▁교수는	-10000
▁레이다	-10001
▁나라에서	-10002
가고	-10003
야를	-10004
포의	-10005
▁제외하면	-10006
망이	-10007
▁행성의	-10008
▁5,	-10009
▁아미노	-10010
▁조문이다	-10011
▁갇	-10012
▁붓	-10013
▁겪었다	-10014
롤라이나	-10015
▁승강장은	-10016
▁콘크	-10017
편으로	-10018
▁라이선	-10019
our	-10020
▁강이	-10021
▁길게	-10022
▁대피	-10023
▁토마	-10024
슈타인	-10025
▁만나게	-10026
▁계획에	-10027
▁시즌의	-10028
메라	-10029
▁세미	-10030
가들은	-10031
▁다음이	-10032
▁영화에	-10033
경과	-10034
스컵	-10035
▁주행	-10036
▁선구	-10037
▁착공	-10038
권에서	-10039
▁조금씩	-10040
▁진행된다	-10041
CD	-10042
길을	-10043
위대	-10044
▁산타	-10045
▁서해	-10046
▁추상	-10047
경영	-10048
인치	-10049
주식	-10050
▁관람	-10051
▁모으	-10052
▁별다른	-10053
▁승리한	-10054
▁알라	-10055
▁마음이	-10056
▁군수	-10057
▁물고	-10058
▁요금	-10059
▁채권	-10060
▁설명했다	-10061
(4	-10062
IS	-10063
▁이어진	-10064
▁지정된	-10065
▁친일인명	-10066
(5	-10067
3)	-10068
산면	-10069
▁결정적인	-10070
▁몬트리올	-10071
일간	-10072
▁모델은	-10073
▁시설을	-10074
▁에티오	-10075
▁제목으로	-10076
▁참여하고	-10077
▁학자들은	-10078
돌이	-10079
런스	-10080
질로	-10081
▁케네	-10082
▁버전은	-10083
▁준비를	-10084
학적으로	-10085
▁비잔티움	-10086
▁느껴	-10087
▁중소	-10088
▁초과	-10089
▁대학에	-10090
▁성공하였다	-10091
PC	-10092
▁주류	-10093
▁기상청	-10094
▁대법원	-10095
▁분데스리가	-10096
처리	-10097
▁군은	-10098
▁근처에서	-10099
아키	-10100
위원장	-10101
화에서	-10102
▁넣었다	-10103
▁독일어	-10104
▁보한다	-10105
▁닭	-10106
▁헐	-10107
▁훔	-10108
▁무승	-10109
▁힘입	-10110
▁형성한다	-10111
곡의	-10112
▁가즈	-10113
냐하면	-10114
▁레이저	-10115
▁시스템이	-10116
종과	-10117
▁시라	-10118
▁하얀	-10119
▁승인을	-10120
▁범위	-10121
▁부적	-10122
▁시켜	-10123
▁부대를	-10124
피는	-10125
▁메타	-10126
▁소총	-10127
▁않았다고	-10128
▁신념	-10129
▁싱어	-10130
()""	-10131
▁리비아	-10132
마와	-10133
▁은퇴를	-10134
▁구체적으로	-10135
▁엘리자베스	-10136
▁증권	-10137
하였다가	-10138
OM	-10139
▁윙	-10140
▁거행	-10141
▁신흥	-10142
▁실수	-10143
▁기리기	-10144
▁도착한	-10145
커는	-10146
▁굉장	-10147
▁미주	-10148
▁위안	-10149
▁이관	-10150
▁하락	-10151
▁요미우리	-10152
몬드	-10153
카타	-10154
▁위임	-10155
▁도서관	-10156
▁않는다고	-10157
▁의병	-10158
▁선수를	-10159
▁비판했다	-10160
▁곡의	-10161
기독교	-10162
▁지적했다	-10163
놓고	-10164
▁에스파냐	-10165
▁궁극	-10166
▁미치	-10167
▁아예	-10168
▁아폴	-10169
▁칭찬	-10170
나라에	-10171
▁맞추어	-10172
▁특징이	-10173
▁관리하고	-10174
▁김동	-10175
▁성취	-10176
▁해인	-10177
▁스카이	-10178
▁특징으로	-10179
▁시로	-10180
▁연령	-10181
▁공사를	-10182
▁생겼다	-10183
▁유격	-10184
▁확진	-10185
▁환원	-10186
시노	-10187
▁실시간	-10188
▁이산화	-10189
▁달성했다	-10190
▁오스트리아의	-10191
▁결코	-10192
▁기념물	-10193
▁리메이	-10194
▁북부에	-10195
▁몸에	-10196
▁억압	-10197
▁제갈	-10198
▁일컫는	-10199
▁중에서는	-10200
주쿠	-10201
▁나눌	-10202
▁사이가	-10203
▁중간에	-10204
▁기차	-10205
▁남부에	-10206
▁영상을	-10207
▁날아	-10208
▁낼	-10209
▁이바	-10210
▁통틀	-10211
버스터	-10212
▁역임한	-10213
▁프랑스어	-10214
▁뿔	-10215
이면서	-10216
인들과	-10217
▁시드니	-10218
▁아이슬란드	-10219
▁옐	-10220
▁오빠	-10221
▁작위를	-10222
▁히데요	-10223
보안	-10224
▁권고	-10225
왔으며	-10226
▁초반에	-10227
▁마천	-10228
▁육성	-10229
▁제네바	-10230
▁사망하고	-10231
고등학교를	-10232
▁복지	-10233
증으로	-10234
▁등장했다	-10235
▁산소	-10236
▁필름	-10237
▁사라졌다	-10238
▁신비	-10239
▁함유	-10240
스트를	-10241
▁참가하고	-10242
행의	-10243
▁딸을	-10244
철도의	-10245
▁사회를	-10246
▁퍼시픽	-10247
▁참여하여	-10248
▁룩	-10249
▁이화	-10250
적이지	-10251
▁감정을	-10252
▁중의원	-10253
▁경기에서는	-10254
나우	-10255
려면	-10256
먼은	-10257
안타	-10258
커스	-10259
▁교수가	-10260
▁십자가	-10261
▁계속되었다	-10262
▁스파이	-10263
▁찌	-10264
▁발원	-10265
▁주를	-10266
▁협의	-10267
▁샹	-10268
구성	-10269
놓은	-10270
▁놓은	-10271
▁수도원	-10272
▁신호를	-10273
▁한국전쟁	-10274
씨와	-10275
▁이끈	-10276
▁표명	-10277
▁한계	-10278
▁동쪽에	-10279
▁설립하였다	-10280
▁시칠	-10281
▁정렬	-10282
▁추출	-10283
론에서	-10284
자리를	-10285
▁국가는	-10286
▁향하는	-10287
▁제주특별자치	-10288
스틴	-10289
▁관장	-10290
속을	-10291
▁상상	-10292
▁이빨	-10293
▁시절에는	-10294
강과	-10295
▁영남	-10296
▁네이버	-10297
▁마이너	-10298
▁라트비아	-10299
▁유지하는	-10300
▁전국동시	-10301
▁하더라도	-10302
제작	-10303
▁인텔	-10304
▁알코올	-10305
번에	-10306
▁구동	-10307
▁스핀	-10308
▁밑에서	-10309
▁세계대	-10310
박한	-10311
포트	-10312
▁보지	-10313
▁손해	-10314
▁양식을	-10315
▁일본을	-10316
헤이	-10317
▁쫓아	-10318
▁일어나자	-10319
▁구리	-10320
▁높고	-10321
▁건물로	-10322
▁태도를	-10323
▁차원에서	-10324
그레	-10325
신라	-10326
▁72	-10327
▁in	-10328
▁줄기	-10329
▁최하	-10330
▁밀접한	-10331
▁상원	-10332
▁시골	-10333
▁왕비	-10334
▁최대한	-10335
▁를	-10336
결정	-10337
▁볼리	-10338
▁플랑	-10339
시부터	-10340
▁전국동시지방선거	-10341
월드	-10342
포는	-10343
▁스릴	-10344
▁회고	-10345
▁배웠다	-10346
▁제안을	-10347
식품	-10348
▁총대	-10349
제국의	-10350
▁목조	-10351
▁암시	-10352
푸르트	-10353
▁분명히	-10354
▁3000	-10355
각이	-10356
박사	-10357
▁그날	-10358
부문	-10359
서도	-10360
타리오	-10361
봉을	-10362
▁전제	-10363
▁조달	-10364
누스는	-10365
▁쓰이고	-10366
▁아제르바이잔	-10367
르며	-10368
강에서	-10369
통이	-10370
▁광산	-10371
▁두산	-10372
▁있었을	-10373
▁크리스토	-10374
▁관념	-10375
▁다룬다	-10376
▁빌헬름	-10377
▁솟	-10378
작전	-10379
▁진동	-10380
▁밴드는	-10381
▁지식을	-10382
ord	-10383
▁안티	-10384
런트	-10385
▁도주	-10386
▁정면	-10387
▁지형	-10388
▁담당하고	-10389
▁사람이다	-10390
마일	-10391
▁바꾸어	-10392
▁마쓰다이라	-10393
▁미국에서는	-10394
ik	-10395
짜리	-10396
▁기지	-10397
▁리스	-10398
▁해를	-10399
과정을	-10400
렸으나	-10401
▁관할하는	-10402
간이	-10403
고려	-10404
▁생각해	-10405
▁협주곡	-10406
▁5000	-10407
▁방법이다	-10408
.25	-10409
▁서머	-10410
▁진정	-10411
하우스	-10412
▁조선인	-10413
▁체포되어	-10414
자스	-10415
전선	-10416
▁전자기	-10417
▁홈페이지	-10418
▁부딪	-10419
▁설탕	-10420
▁굉장히	-10421
▁단위로	-10422
▁의회의	-10423
냈고	-10424
시키며	-10425
▁무기를	-10426
▁시장에	-10427
▁용어를	-10428
▁이래로	-10429
ew	-10430
▁텔	-10431
거리를	-10432
▁수술을	-10433
▁엄격한	-10434
기관으로	-10435
▁정부로부터	-10436
▁앉아	-10437
▁입자	-10438
▁장로	-10439
▁하나이며	-10440
▁아비	-10441
▁대신하여	-10442
▁시나리오	-10443
▁사기	-10444
▁힘든	-10445
▁기능은	-10446
▁새겨져	-10447
▁와중에	-10448
▁시작하였고	-10449
▁로스앤젤레스에서	-10450
▁전도	-10451
▁속으로	-10452
▁스테이지	-10453
전도	-10454
▁담긴	-10455
▁월간	-10456
과로	-10457
실험	-10458
앨범	-10459
▁개화	-10460
▁복제	-10461
▁안산	-10462
▁전진	-10463
▁운동은	-10464
▁직접적으로	-10465
모와	-10466
양은	-10467
▁공화당	-10468
▁잃었다	-10469
▁최근의	-10470
▁설명한다	-10471
▁광주광역시	-10472
우드	-10473
▁추격	-10474
▁관현악	-10475
▁펼쳤다	-10476
▁환경을	-10477
다지	-10478
브는	-10479
치현	-10480
▁명에	-10481
▁이내	-10482
▁임기	-10483
리아는	-10484
▁부대는	-10485
됨으로써	-10486
▁중심기압	-10487
▁드문	-10488
▁모드	-10489
▁빠진	-10490
▁귀중한	-10491
▁응우옌	-10492
▁할리우	-10493
당하였다	-10494
▁기점으로	-10495
▁생산하는	-10496
포가	-10497
▁성은	-10498
▁초등	-10499
▁음악의	-10500
▁이루어지고	-10501
▁봤	-10502
택을	-10503
▁동치	-10504
▁떠올	-10505
▁상반	-10506
▁대상을	-10507
황을	-10508
▁강과	-10509
▁목사	-10510
곡으로	-10511
방에서	-10512
▁운행한다	-10513
교수	-10514
뉴스	-10515
타니	-10516
터널	-10517
~20	-10518
▁《》	-10519
▁알제	-10520
▁시즌이	-10521
▁위기를	-10522
▁고수	-10523
▁밀어	-10524
oh	-10525
감과	-10526
층을	-10527
▁기름	-10528
▁미분	-10529
▁대회에서는	-10530
▁넣고	-10531
▁닌텐도	-10532
▁자동으로	-10533
▁마약	-10534
▁숭배	-10535
▁제자	-10536
▁방송국	-10537
▁북쪽의	-10538
▁자체를	-10539
▁저명한	-10540
▁조선인민	-10541
▁도시가	-10542
▁여름에	-10543
▁디자인을	-10544
내셔널	-10545
▁공간의	-10546
▁85	-10547
▁가축	-10548
▁섬에	-10549
▁투옥	-10550
▁진출을	-10551
▁선출했다	-10552
▁댐	-10553
변이	-10554
▁참여하는	-10555
였을	-10556
올로	-10557
제프	-10558
▁이영	-10559
▁터뜨	-10560
▁지방을	-10561
반에	-10562
▁두어	-10563
▁야간	-10564
▁흔한	-10565
AN	-10566
▁시계	-10567
▁조반	-10568
점이다	-10569
문제연구	-10570
선언	-10571
청에	-10572
man	-10573
▁신임	-10574
▁코트	-10575
▁합계	-10576
▁중국과	-10577
▁구릉	-10578
▁불확	-10579
▁에버	-10580
▁왕자	-10581
▁전선	-10582
▁화석	-10583
▁이론의	-10584
▁스스로를	-10585
▁있으면서	-10586
르지	-10587
약품	-10588
▁몰래	-10589
▁오오	-10590
▁진짜	-10591
▁수도인	-10592
목적	-10593
여객	-10594
▁기갑	-10595
▁이광	-10596
▁북부의	-10597
▁순수한	-10598
▁알렸다	-10599
▁재현	-10600
▁리눅스	-10601
▁부유한	-10602
▁찾아볼	-10603
▁관리하는	-10604
IN	-10605
십자	-10606
▁기습	-10607
▁말기	-10608
▁축하	-10609
▁얻고	-10610
▁경찰은	-10611
대회에서	-10612
▁숙종	-10613
▁피어	-10614
▁상원의	-10615
▁에이스	-10616
▁활약한	-10617
▁결혼했다	-10618
▁밀양	-10619
▁부서	-10620
▁직전에	-10621
~4	-10622
통의	-10623
▁결론	-10624
▁프로토콜	-10625
▁안보	-10626
갔으며	-10627
▁기술의	-10628
▁이유를	-10629
▁학생이	-10630
주간	-10631
▁규모는	-10632
▁업적을	-10633
내어	-10634
▁사건이다	-10635
극장	-10636
▁느꼈	-10637
▁실린	-10638
년동안	-10639
-6	-10640
▁나눠	-10641
나갔다	-10642
▁아래는	-10643
▁오하이	-10644
▁주장한	-10645
▁하드웨어	-10646
▁매사추세츠	-10647
▁색을	-10648
▁전체에	-10649
▁천문학	-10650
end	-10651
▁시즈	-10652
▁즉각	-10653
▁유형의	-10654
▁참고로	-10655
▁거주하고	-10656
▁존재하며	-10657
▁개관	-10658
▁재무	-10659
▁네이션	-10660
란은	-10661
▁서사	-10662
마르크	-10663
▁시장을	-10664
브의	-10665
비나	-10666
▁장학	-10667
▁상태였다	-10668
▁중단되었다	-10669
크에	-10670
▁빌리	-10671
▁아서	-10672
▁유언	-10673
▁인생	-10674
▁테일러	-10675
▁대한민국에	-10676
)」	-10677
▁63	-10678
▁누적	-10679
행으로	-10680
▁대통령에	-10681
바논	-10682
버러	-10683
연은	-10684
▁여수	-10685
▁유래한	-10686
▁디아	-10687
▁어휘	-10688
▁되돌아	-10689
▁만나는	-10690
림이	-10691
열대	-10692
▁뻗어	-10693
▁설명하는	-10694
TS	-10695
▁보잉	-10696
▁투구	-10697
▁불교의	-10698
▁아름다	-10699
▁피해가	-10700
▁기록하는	-10701
▁하야	-10702
▁감독과	-10703
▁곡으로	-10704
▁실패로	-10705
▁가죽	-10706
▁공인	-10707
▁전통을	-10708
▁호평을	-10709
▁덧붙여	-10710
▁힘입어	-10711
▁순회	-10712
▁엄격	-10713
어이다	-10714
▁거느리고	-10715
분석	-10716
어지는	-10717
야만	-10718
▁봉쇄	-10719
▁사원	-10720
▁올바	-10721
년대의	-10722
▁자세한	-10723
▁회사를	-10724
ML	-10725
▁버려	-10726
래스카	-10727
▁노선의	-10728
▁수렴	-10729
▁학위	-10730
▁뒷받침	-10731
▁주장은	-10732
▁출전한	-10733
▁칼리지	-10734
▁이후부터	-10735
정당	-10736
▁군에	-10737
▁채무	-10738
▁팀인	-10739
▁희귀	-10740
임에도	-10741
▁물질을	-10742
▁사람과	-10743
▁의식을	-10744
▁철도가	-10745
▁회사가	-10746
▁갤럭	-10747
▁배틀	-10748
▁에서	-10749
▁진군	-10750
▁일본과	-10751
▁자신도	-10752
턴의	-10753
▁나의	-10754
▁믿고	-10755
▁활동하는	-10756
부르	-10757
▁갈아	-10758
▁진급	-10759
▁소속된	-10760
▁자리잡고	-10761
가족	-10762
스페	-10763
열차	-10764
절한	-10765
▁88	-10766
▁발트	-10767
▁제국을	-10768
▁소속이다	-10769
-8	-10770
ff	-10771
▁새누리	-10772
▁여부를	-10773
▁입원	-10774
구나	-10775
일으	-10776
▁경부	-10777
▁역설	-10778
▁이나	-10779
▁모르는	-10780
세기부터	-10781
▁사회에서	-10782
▁월드컵에서	-10783
작의	-10784
▁김용	-10785
▁왕은	-10786
▁국방부	-10787
▁내부에	-10788
일체	-10789
▁매입	-10790
▁요구를	-10791
▁환경에	-10792
매매	-10793
▁헤드	-10794
쳤으며	-10795
▁두개골	-10796
▁들어온	-10797
▁이후로는	-10798
반은	-10799
시에는	-10800
▁배치되어	-10801
▁존재했던	-10802
▁환경에서	-10803
▁샬	-10804
▁간호	-10805
▁미얀마	-10806
▁다양하다	-10807
▁편입되었다	-10808
▁이인	-10809
▁공로로	-10810
▁왜냐하면	-10811
반이	-10812
▁냉각	-10813
▁순천	-10814
▁작센	-10815
마사	-10816
섬에	-10817
▁태종	-10818
▁논문을	-10819
▁돋	-10820
▁림	-10821
▁밑에	-10822
▁수동	-10823
▁협박	-10824
▁있는지	-10825
보건	-10826
▁다중	-10827
▁물건	-10828
▁사천	-10829
▁PD	-10830
▁대관	-10831
▁스콧	-10832
▁독립된	-10833
▁신설되었다	-10834
▁뒤집	-10835
▁드림	-10836
▁의미의	-10837
▁아니라고	-10838
평화	-10839
▁노비	-10840
▁영의	-10841
▁방식이	-10842
▁할머니	-10843
라브	-10844
▁띠고	-10845
▁불평	-10846
▁성균관	-10847
교와	-10848
권도	-10849
질은	-10850
▁대회이다	-10851
PG	-10852
▁냄	-10853
▁햇	-10854
▁횟	-10855
외선	-10856
▁축적	-10857
▁학자	-10858
▁향년	-10859
▁효소	-10860
▁디비전	-10861
▁성장을	-10862
▁오스트레일리아의	-10863
미쓰	-10864
▁밤에	-10865
▁제압	-10866
▁획득한	-10867
베이니아	-10868
대책	-10869
백과	-10870
악한	-10871
항이	-10872
▁붙은	-10873
▁위탁	-10874
▁해운	-10875
▁기간을	-10876
ex	-10877
▁김포	-10878
▁시초	-10879
▁채워	-10880
▁변화에	-10881
▁함으로써	-10882
내가	-10883
레아	-10884
지역의	-10885
▁주제가	-10886
▁경우에도	-10887
▁자연스럽게	-10888
치료	-10889
-17	-10890
▁아즈	-10891
▁그쳤다	-10892
▁노무현	-10893
▁헌법재판	-10894
▁대한민국은	-10895
공은	-10896
▁구제	-10897
▁바실	-10898
▁불편	-10899
▁빈곤	-10900
▁뜨거운	-10901
▁원인은	-10902
▁움직임을	-10903
▁의미에서	-10904
욕을	-10905
▁날카	-10906
▁레전	-10907
▁연세	-10908
▁놓았다	-10909
지휘	-10910
ens	-10911
▁부수	-10912
▁실려	-10913
▁럭	-10914
▁남해	-10915
▁쇼와	-10916
▁부동산	-10917
▁사고가	-10918
▁요청을	-10919
▁성모	-10920
▁일컬	-10921
▁중도	-10922
▁지고	-10923
▁만남	-10924
▁비오	-10925
▁적합한	-10926
척의	-10927
츠가	-10928
주의가	-10929
▁비로소	-10930
▁승부차	-10931
▁불러일으	-10932
▁김재	-10933
▁나쁜	-10934
▁상류	-10935
▁선사	-10936
▁나타낼	-10937
▁왕위에	-10938
▁갓	-10939
예프	-10940
까지만	-10941
▁68	-10942
▁발을	-10943
▁보일	-10944
사령관	-10945
▁밀도는	-10946
▁스릴러	-10947
▁스위스의	-10948
▁여기에서	-10949
▁울산광역시	-10950
네가	-10951
▁계몽	-10952
▁칸의	-10953
▁10%	-10954
▁마리오	-10955
▁웨일스	-10956
선조	-10957
▁사헌	-10958
우리는	-10959
▁그러던	-10960
▁측의	-10961
▁침투	-10962
▁구단은	-10963
▁아사히	-10964
」(	-10965
▁RNA	-10966
▁느낌을	-10967
▁무소속	-10968
▁문제의	-10969
▁장거리	-10970
주택	-10971
▁교역	-10972
일에서	-10973
▁노란색	-10974
▁부문에서	-10975
팩트	-10976
▁어려워	-10977
▁대거	-10978
기동	-10979
▁최적	-10980
▁모친	-10981
▁불이	-10982
크에서	-10983
▁거기서	-10984
▁1894	-10985
▁서식하는	-10986
ss	-10987
글리	-10988
▁분화	-10989
▁개발이	-10990
▁톨	-10991
▁de	-10992
▁주석	-10993
▁했을	-10994
▁나오지	-10995
▁것으로서	-10996
▁데이터베이스	-10997
거는	-10998
구르	-10999
정원	-11000
▁통행	-11001
게이머	-11002
▁톈	-11003
▁담겨	-11004
▁송시	-11005
▁이식	-11006
테르부르크	-11007
▁실패하였다	-11008
ind	-11009
▁MC	-11010
▁구출	-11011
▁매출	-11012
▁비난을	-11013
▁개발되었다	-11014
▁구간을	-11015
▁변경하였다	-11016
각의	-11017
님을	-11018
번은	-11019
족에	-11020
그리스	-11021
▁우승한	-11022
▁황제로	-11023
위원으로	-11024
▁들어간다	-11025
▁리메이크	-11026
▁쇄	-11027
누엘	-11028
▁띤다	-11029
▁독일이	-11030
대구	-11031
▁그냥	-11032
▁적고	-11033
▁오렌지	-11034
▁독립적인	-11035
라트	-11036
▁로열	-11037
▁리얼	-11038
▁갈등을	-11039
만여	-11040
무역	-11041
일반	-11042
ark	-11043
▁닛폰	-11044
▁모형	-11045
▁어긋	-11046
▁조명	-11047
▁보호를	-11048
▁페르디	-11049
▁물러났다	-11050
▁미스	-11051
▁데뷔를	-11052
▁우라늄	-11053
▁런던에서	-11054
▁문서이다	-11055
▁주민들이	-11056
널티	-11057
멘트	-11058
풍의	-11059
▁넣은	-11060
▁부부	-11061
▁것인데	-11062
▁디오	-11063
▁전압	-11064
▁평면	-11065
베니아	-11066
▁기록해	-11067
▁본명은	-11068
▁인근의	-11069
▁줄여서	-11070
▁주민들은	-11071
미노	-11072
▁바른	-11073
▁남쪽의	-11074
▁본인의	-11075
ate	-11076
▁관련한	-11077
▁지역구	-11078
▁제안했다	-11079
면에는	-11080
▁스트리	-11081
▁시장에서	-11082
▁쏟아	-11083
▁존경	-11084
방으로	-11085
▁제주도	-11086
▁메커니즘	-11087
▁종은	-11088
▁도마뱀	-11089
▁어머니가	-11090
라기	-11091
포구	-11092
▁가짜	-11093
▁링컨	-11094
▁표본	-11095
수용	-11096
제한	-11097
총장	-11098
▁봉건	-11099
▁허브	-11100
▁성격이	-11101
▁연기를	-11102
▁지휘관	-11103
▁표현을	-11104
▁우승하였다	-11105
▁1890	-11106
▁짙은	-11107
▁엿	-11108
아래	-11109
▁루스	-11110
▁서경	-11111
▁장치를	-11112
▁적극적인	-11113
one	-11114
▁수습	-11115
▁촉매	-11116
교육을	-11117
br	-11118
고래	-11119
▁이유가	-11120
꼬리	-11121
일드	-11122
▁말씀	-11123
거리는	-11124
▁전투기	-11125
방위	-11126
▁CE	-11127
▁합창	-11128
▁부분의	-11129
▁제도가	-11130
▁차량을	-11131
학이	-11132
▁아랫	-11133
▁정한	-11134
정에서	-11135
단위	-11136
쟁이	-11137
▁역에	-11138
▁생각할	-11139
▁이야기는	-11140
루와	-11141
체제	-11142
▁바퀴	-11143
▁사자	-11144
▁시뮬	-11145
▁옹립	-11146
▁최후의	-11147
▁어머니의	-11148
감에	-11149
근의	-11150
말라	-11151
희의	-11152
▁59	-11153
▁라스	-11154
▁부천	-11155
▁요크	-11156
프라이	-11157
▁2-1	-11158
IP	-11159
▁효고	-11160
▁교황의	-11161
▁기록했고	-11162
▁전체적인	-11163
약성	-11164
현대	-11165
▁낭만	-11166
▁다음해	-11167
▁목표는	-11168
▁고려대학교	-11169
▁사사	-11170
▁소매	-11171
▁등지에서	-11172
강이	-11173
ust	-11174
▁난민	-11175
▁종으로	-11176
▁부분으로	-11177
ont	-11178
▁NBA	-11179
▁쓰였다	-11180
▁작곡한	-11181
시즘	-11182
칸의	-11183
티코	-11184
▁성당	-11185
버렸다	-11186
▁다니는	-11187
▁건설되었다	-11188
~2	-11189
▁해주	-11190
▁모델이	-11191
▁협상을	-11192
로부터의	-11193
한테	-11194
▁로저	-11195
▁쓰기	-11196
▁야쿠	-11197
▁중국에	-11198
▁차이는	-11199
▁확실히	-11200
▁리뷰	-11201
▁발현	-11202
▁l	-11203
액의	-11204
연구원	-11205
▁경신	-11206
▁언더	-11207
▁기술은	-11208
▁나가노	-11209
▁허리케	-11210
▁메시지를	-11211
▁아버지를	-11212
▁대책	-11213
▁민감	-11214
▁주소	-11215
▁컴파	-11216
▁나가는	-11217
▁독일과	-11218
▁시기를	-11219
▁시위를	-11220
▁선언하였다	-11221
스런	-11222
렸는데	-11223
▁왕국을	-11224
▁제사를	-11225
▁민족문제연구	-11226
▁공모	-11227
▁김태	-11228
▁완화	-11229
▁불리게	-11230
▁일으킬	-11231
▁회의를	-11232
▁이룬	-11233
▁관리를	-11234
▁그레고	-11235
▁잎은	-11236
▁공격에	-11237
리라	-11238
바스	-11239
애를	-11240
▁두는	-11241
▁업그	-11242
▁최상위	-11243
▁선거구이다	-11244
순위	-11245
아파	-11246
▁만의	-11247
▁이남	-11248
이트를	-11249
▁CPU	-11250
▁수록된	-11251
▁않으나	-11252
▁잡았다	-11253
▁피하기	-11254
▁이집트의	-11255
▁행정구역	-11256
▁펜실베이니아	-11257
▁전속	-11258
▁협약	-11259
▁임시정부	-11260
번뇌	-11261
▁난이	-11262
▁존속	-11263
▁가리키	-11264
▁없었기	-11265
▁오하이오	-11266
▁상트	-11267
▁총리가	-11268
▁합스부르크	-11269
▁패배를	-11270
▁추가적인	-11271
석탑	-11272
▁평범한	-11273
▁엽	-11274
판과	-11275
▁반해	-11276
▁싶은	-11277
교에	-11278
디나	-11279
▁불어	-11280
▁자택	-11281
결과를	-11282
▁영어로	-11283
▁온타리오	-11284
Al	-11285
▁덮여	-11286
▁시흥	-11287
▁직선	-11288
▁용도로	-11289
▁머물렀다	-11290
▁프로듀싱	-11291
▁멋	-11292
▁상처	-11293
▁축출	-11294
▁탐지	-11295
▁군대에	-11296
▁사례가	-11297
아일랜드	-11298
▁선수이자	-11299
▁평균자책	-11300
히메	-11301
▁당일	-11302
▁브뤼	-11303
대륙	-11304
ern	-11305
▁동래	-11306
▁구단의	-11307
정신	-11308
준은	-11309
루미늄	-11310
▁일하는	-11311
▁언급했다	-11312
▁인정하고	-11313
▁프로그램이	-11314
측은	-11315
훈장	-11316
ain	-11317
▁김상	-11318
▁디자	-11319
▁그들에게	-11320
▁그렇다면	-11321
▁중요성을	-11322
서기	-11323
(14	-11324
▁민사	-11325
▁산다	-11326
▁조언	-11327
▁1.5	-11328
▁뛰어나	-11329
▁정신을	-11330
▁통틀어	-11331
▁벌어졌다	-11332
▁아시카가	-11333
▁체코슬로	-11334
▁w	-11335
무스	-11336
운영	-11337
▁해소	-11338
▁마음에	-11339
▁블랙홀	-11340
▁구역이다	-11341
께서	-11342
녀를	-11343
▁난징	-11344
▁잃어버	-11345
(-	-11346
팀의	-11347
▁단기	-11348
▁폭넓	-11349
▁차량이	-11350
▁페널티	-11351
버는	-11352
▁SM	-11353
▁일방	-11354
▁재혼	-11355
밀하게	-11356
▁살았던	-11357
▁닦	-11358
니시	-11359
릴라	-11360
▁빌려	-11361
환의	-11362
▁발급	-11363
▁세속	-11364
▁피신	-11365
르키예	-11366
▁휴스턴	-11367
▁스트리트	-11368
▁캄보디아	-11369
터스	-11370
▁설도	-11371
▁소닉	-11372
▁임용	-11373
월과	-11374
▁노리	-11375
▁목을	-11376
▁보전	-11377
▁사망하자	-11378
▁김진	-11379
▁미노	-11380
▁위험한	-11381
▁아래에서	-11382
▁지능	-11383
▁이름인	-11384
▁종이다	-11385
▁깎	-11386
▁미루	-11387
▁받침	-11388
▁우편	-11389
▁사이드	-11390
▁심리학	-11391
▁중앙위원회	-11392
온은	-11393
▁삼촌	-11394
▁석조	-11395
▁시키	-11396
▁지주	-11397
▁최후	-11398
▁평택	-11399
▁기사를	-11400
측에	-11401
코드	-11402
회담	-11403
▁홈구	-11404
지는데	-11405
▁기반의	-11406
▁일이다	-11407
▁타격을	-11408
▁피에르	-11409
▁배구	-11410
▁가족은	-11411
▁최악의	-11412
▁끊임없이	-11413
▁정도였다	-11414
▁블라디미르	-11415
▁3·	-11416
▁항소	-11417
▁형법	-11418
▁거리는	-11419
▁이론에	-11420
▁사용되며	-11421
▁자문	-11422
▁최연	-11423
▁발렌시아	-11424
국어	-11425
▁온천	-11426
▁회계	-11427
자이며	-11428
▁존재가	-11429
학교에서	-11430
▁득표율을	-11431
▁멕시코의	-11432
연방	-11433
▁글리	-11434
▁낸다	-11435
▁러브	-11436
▁밀집	-11437
▁개념이	-11438
▁규모로	-11439
▁레바논	-11440
▁기업이다	-11441
▁됐	-11442
액은	-11443
▁감행	-11444
킬로미터	-11445
▁결정되었다	-11446
ich	-11447
도이다	-11448
로니	-11449
지능	-11450
▁용어로	-11451
▁역사적인	-11452
▁자격으로	-11453
▁정부에서	-11454
▁지구에서	-11455
▁방영되었다	-11456
작이	-11457
차와	-11458
▁지휘하는	-11459
▁프로젝트를	-11460
▁x	-11461
참모	-11462
-21	-11463
▁붙인	-11464
▁소금	-11465
▁워너	-11466
▁우즈베	-11467
▁출신인	-11468
인한	-11469
▁술을	-11470
▁어워	-11471
겼으며	-11472
▁자회사	-11473
▁시내버스	-11474
▁프로게이머	-11475
▁조리	-11476
▁그룹이다	-11477
국장	-11478
▁비유	-11479
▁소니	-11480
▁뚜렷한	-11481
▁더불어민주당	-11482
ug	-11483
레가	-11484
만년	-11485
▁IT	-11486
▁만성	-11487
▁정사	-11488
클랜드	-11489
▁결정하는	-11490
▁구마모토	-11491
▁※	-11492
동맥	-11493
원이다	-11494
▁조선로동	-11495
아들	-11496
▁99	-11497
▁후궁	-11498
▁들어갈	-11499
▁물질의	-11500
▁선거는	-11501
▁차량은	-11502
더니	-11503
▁고민	-11504
▁아부	-11505
▁양국	-11506
▁테이블	-11507
▁자유주의	-11508
▁닐	-11509
노가	-11510
예정	-11511
라이터	-11512
▁게르만	-11513
결과	-11514
▁기자회	-11515
캐롤라이나	-11516
▁프로그램에	-11517
병에	-11518
▁만화가	-11519
▁개발하고	-11520
▁나머지는	-11521
변에	-11522
손은	-11523
▁위장	-11524
▁제독	-11525
▁패키	-11526
운동에	-11527
으려고	-11528
▁중국어	-11529
▁뉴욕에서	-11530
모든	-11531
시나	-11532
▁던져	-11533
▁연쇄	-11534
▁종속	-11535
▁가벼운	-11536
▁버렸다	-11537
▁시호를	-11538
카트	-11539
▁바꾼	-11540
▁양이	-11541
▁부작용	-11542
▁경상남도의	-11543
소녀	-11544
▁본사를	-11545
▁예술가	-11546
▁장관을	-11547
회의에서	-11548
▁영동	-11549
▁일러	-11550
▁대학교에	-11551
량과	-11552
▁몸이	-11553
▁얻지	-11554
▁팀으로	-11555
▁프톨레	-11556
대한민국	-11557
▁프랑크푸르트	-11558
▁기각	-11559
▁소셜	-11560
▁시그	-11561
▁중재	-11562
▁미스터	-11563
▁영화제	-11564
프로그램	-11565
▁떨어지는	-11566
▁2,000	-11567
▁뉘	-11568
사지	-11569
파인	-11570
▁수축	-11571
▁패한	-11572
있었다	-11573
▁국내외	-11574
▁노동조합	-11575
▁처음부터	-11576
즈에서	-11577
▁가지며	-11578
▁갈수록	-11579
▁장군의	-11580
▁과거에는	-11581
▁・	-11582
▁환자	-11583
▁견해를	-11584
▁경찰에	-11585
▁미쳤다	-11586
덕션	-11587
왕과	-11588
-18	-11589
▁1-0	-11590
▁스튜어	-11591
▁투표를	-11592
▁시리즈를	-11593
▁친일인명사전	-11594
월한	-11595
▁신한	-11596
▁인문	-11597
프에서	-11598
▁말기에	-11599
▁음악에	-11600
▁차량의	-11601
코쿠	-11602
▁거울	-11603
▁난다	-11604
▁이가	-11605
▁가까워	-11606
▁잠수함	-11607
▁존재하고	-11608
▁얹	-11609
검사	-11610
항의	-11611
▁컬러	-11612
하자면	-11613
▁미국을	-11614
▁알려지게	-11615
산성	-11616
피의	-11617
▁내전	-11618
▁리치	-11619
▁미터	-11620
어지고	-11621
올림픽	-11622
▁가져왔다	-11623
▁그리스어	-11624
▁시기에는	-11625
벤처	-11626
폭력	-11627
!""	-11628
▁기슭	-11629
▁단절	-11630
▁외야	-11631
▁잡은	-11632
▁지정하여	-11633
▁얽	-11634
어요	-11635
▁곡이	-11636
▁본거	-11637
▁샘플	-11638
▁옥스	-11639
▁언어의	-11640
▁지구와	-11641
▁올라간다	-11642
▁부의	-11643
▁시외	-11644
▁컨셉	-11645
암으로	-11646
▁손으로	-11647
▁민족주의	-11648
고종	-11649
▁66	-11650
▁딸인	-11651
▁스티브	-11652
▁일요일	-11653
▁뭉	-11654
사용	-11655
▁여신	-11656
▁1898	-11657
▁일컫는다	-11658
▁슬로바키아	-11659
ock	-11660
▁세션	-11661
▁김일성	-11662
▁손가락	-11663
▁팀에서	-11664
▁행사를	-11665
▁지방자치	-11666
▁땄	-11667
▁수확	-11668
▁얻는다	-11669
분해	-11670
▁배신	-11671
▁호는	-11672
검찰청	-11673
▁고통을	-11674
▁황해도	-11675
창을	-11676
▁많으며	-11677
▁위치는	-11678
명이었다	-11679
▁주장하며	-11680
계급	-11681
▁쓰지	-11682
▁케냐	-11683
철의	-11684
▁62	-11685
▁진흥	-11686
▁업체	-11687
▁이노	-11688
▁철회	-11689
▁호위	-11690
불교의	-11691
▁세상에	-11692
▁장면을	-11693
▁진행되고	-11694
▁괴롭	-11695
▁개그	-11696
▁옳	-11697
사고	-11698
웠고	-11699
300	-11700
▁AM	-11701
▁마츠	-11702
▁먹을	-11703
▁사절	-11704
▁서재	-11705
▁승계	-11706
▁이의	-11707
▁하마	-11708
박물관	-11709
▁선수는	-11710
▁스탈린	-11711
▁종류가	-11712
▁학교의	-11713
▁광둥	-11714
▁벌인	-11715
▁원리	-11716
▁정보가	-11717
▁덴마크의	-11718
▁플라스틱	-11719
천여	-11720
▁개종	-11721
▁이윤	-11722
▁언급한	-11723
▁합류했다	-11724
▁시리즈에서	-11725
버린	-11726
브루	-11727
▁나올	-11728
▁왕복	-11729
▁정서	-11730
들과는	-11731
▁민족의	-11732
▁총대주교	-11733
소방	-11734
채널	-11735
하키	-11736
▁st	-11737
▁마루	-11738
▁선물	-11739
▁리그를	-11740
▁서유럽	-11741
▁쇼트	-11742
▁책의	-11743
▁페어	-11744
▁흥선	-11745
▁맏	-11746
▁얀	-11747
림의	-11748
▁순교	-11749
▁에디	-11750
▁보유한	-11751
▁이벤트	-11752
▁나눈	-11753
▁제노	-11754
하자는	-11755
▁가지가	-11756
량에	-11757
▁교전	-11758
▁필사	-11759
▁해밀	-11760
▁것들이	-11761
▁과정이	-11762
수리	-11763
▁담배	-11764
▁문법	-11765
▁숫자	-11766
▁비판이	-11767
▁안에는	-11768
▁얼굴을	-11769
▁복귀했다	-11770
▁넘어가	-11771
▁연구의	-11772
대학교에서	-11773
리조	-11774
링을	-11775
▁어항	-11776
▁제트	-11777
▁천도	-11778
▁증거가	-11779
IT	-11780
-12	-11781
▁범주	-11782
▁기초를	-11783
중은	-11784
코와	-11785
학부	-11786
▁고체	-11787
▁교구	-11788
▁생식	-11789
▁좌표	-11790
▁개인이	-11791
▁일종으로	-11792
-16	-11793
▁문장	-11794
▁오라	-11795
▁우호	-11796
▁춘천	-11797
▁전역에	-11798
기사	-11799
▁사슬	-11800
▁오바	-11801
▁전했다	-11802
▁정의할	-11803
▁받았지만	-11804
우지	-11805
▁명성	-11806
▁부가	-11807
▁비평	-11808
▁왕족	-11809
▁배우로	-11810
▁위험을	-11811
▁상용	-11812
▁생략	-11813
▁후안	-11814
▁런던의	-11815
▁설치한	-11816
▁안드레	-11817
▁벨라루스	-11818
▁승강장이	-11819
줬다	-11820
품이	-11821
▁고쳐	-11822
▁날에	-11823
▁웹툰	-11824
▁이반	-11825
▁퇴적	-11826
▁마을에	-11827
과학기술	-11828
▁간주된다	-11829
▁맥락	-11830
▁중합	-11831
▁대가로	-11832
▁접하며	-11833
▁적혀	-11834
▁비율이	-11835
▁표면에	-11836
▁자유로운	-11837
▁출전하였다	-11838
운트	-11839
▁것임을	-11840
▁상태의	-11841
▁추측된다	-11842
▁분비	-11843
▁악기	-11844
▁평일	-11845
▁올리고	-11846
▁일대에	-11847
▁후기의	-11848
▁알루미늄	-11849
달아	-11850
▁공민	-11851
▁포획	-11852
▁역사에	-11853
▁정해진	-11854
전문학교	-11855
▁전역에서	-11856
▁프로리그	-11857
미한	-11858
▁동명	-11859
▁여진	-11860
▁남기고	-11861
동성	-11862
▁단축	-11863
▁부사	-11864
▁시범	-11865
▁관직을	-11866
▁보호하기	-11867
▁자신들이	-11868
도어	-11869
하로	-11870
현과	-11871
▁고백	-11872
▁교회에	-11873
▁잡아먹	-11874
OR	-11875
수원	-11876
▁모서	-11877
▁집계	-11878
▁기회가	-11879
▁변화는	-11880
열에	-11881
시키지	-11882
▁제국에	-11883
▁방식이다	-11884
▁권장	-11885
▁사살	-11886
▁창의	-11887
▁하우	-11888
▁강도	-11889
▁방패	-11890
▁신이	-11891
▁자국	-11892
▁선거구	-11893
▁벵	-11894
▁부지	-11895
▁세금	-11896
는지는	-11897
▁그룹은	-11898
▁심의	-11899
▁교육과	-11900
▁수행할	-11901
▁대통령으로	-11902
▁갈릴	-11903
▁등극	-11904
▁봉안	-11905
▁입성	-11906
라이어	-11907
▁클라이	-11908
▁해결하기	-11909
.6%	-11910
▁끝날	-11911
▁문명	-11912
▁원수	-11913
▁다녔다	-11914
▁국제적인	-11915
▁동아일보	-11916
군다	-11917
(10	-11918
▁법인	-11919
▁평창	-11920
▁해수	-11921
▁사고를	-11922
▁줄무늬	-11923
것도	-11924
▁소지	-11925
▁오를	-11926
서비스	-11927
▁공간이	-11928
▁조약에	-11929
내며	-11930
대교	-11931
방울	-11932
▁슈트	-11933
▁선수이며	-11934
▁결정하였다	-11935
▁알렉산드로	-11936
인터	-11937
▁감안	-11938
▁증손	-11939
해주는	-11940
▁일대를	-11941
공격	-11942
▁추산	-11943
하이드	-11944
▁되지만	-11945
▁따른다	-11946
▁자치구	-11947
도리	-11948
▁카디	-11949
▁버전의	-11950
▁아리스토	-11951
▁한나라당	-11952
▁양호	-11953
년이다	-11954
▁방문한	-11955
▁압력을	-11956
▁장군이	-11957
▁시베리아	-11958
▁튀르키예	-11959
▁그리스도의	-11960
▁에티오피아	-11961
▁h	-11962
방은	-11963
수소	-11964
▁사면	-11965
문에서	-11966
▁더욱이	-11967
▁동생인	-11968
▁선수들을	-11969
▁프랑스에	-11970
아마	-11971
임은	-11972
츠를	-11973
▁견해	-11974
▁국영	-11975
▁규범	-11976
▁빛이	-11977
▁표방	-11978
렸다고	-11979
▁스피드	-11980
▁프톨레마이	-11981
증은	-11982
▁경로	-11983
선이다	-11984
▁시대부터	-11985
▁포르투갈의	-11986
▁둥글	-11987
▁적지	-11988
라에서	-11989
▁가고시마	-11990
▁브라우저	-11991
친구	-11992
▁인격	-11993
회의원	-11994
▁있기도	-11995
.2%	-11996
▁균형	-11997
▁꼭대	-11998
▁영조	-11999
▁주가	-12000
▁중기	-12001
▁직결	-12002
▁그다지	-12003
▁부분에서	-12004
▁조선일보	-12005
가르	-12006
보수	-12007
▁입각	-12008
▁문화가	-12009
▁즉위한	-12010
▁1902	-12011
▁초록	-12012
ight	-12013
▁교육의	-12014
▁전력을	-12015
▁코스타	-12016
▁톤	-12017
거를	-12018
냐는	-12019
하늘	-12020
▁구할	-12021
▁호세	-12022
아버지	-12023
▁사이버	-12024
▁디비시온	-12025
▁50%	-12026
▁사람도	-12027
▁점령한	-12028
▁이름에서	-12029
준의	-12030
품의	-12031
서이다	-12032
▁다운로드	-12033
-7	-12034
▁합작	-12035
▁매니저	-12036
▁별명을	-12037
▁승격되었다	-12038
골로	-12039
학원	-12040
▁그릇	-12041
▁이용한다	-12042
ah	-12043
~5	-12044
▁킨	-12045
위안	-12046
ure	-12047
▁라파	-12048
▁물어	-12049
▁산란	-12050
▁스쿨	-12051
▁카롤	-12052
▁드물게	-12053
▁안으로	-12054
▁인상을	-12055
eb	-12056
저지	-12057
풍속	-12058
▁누가	-12059
▁흥행	-12060
▁게임이	-12061
▁아무도	-12062
▁질량은	-12063
▁엔지니어	-12064
페테르부르크	-12065
▁맞은	-12066
▁석가	-12067
▁스톡	-12068
▁중대	-12069
▁즐겨	-12070
▁진나라	-12071
▁프레스	-12072
▁선보였다	-12073
▁맑	-12074
노프	-12075
▁글루	-12076
▁병역	-12077
▁연금	-12078
▁레전드	-12079
▁블로그	-12080
▁추기경	-12081
▁도입되었다	-12082
▁북아프리카	-12083
장치	-12084
▁맞붙	-12085
▁밝힌	-12086
▁저렴	-12087
▁수학자	-12088
▁지진이	-12089
▁차이로	-12090
▁1901	-12091
▁마이크	-12092
▁아케이드	-12093
▁형성하고	-12094
▁꼴	-12095
▁게오	-12096
▁광장	-12097
▁서정	-12098
▁할아버지	-12099
다르	-12100
사나	-12101
태후	-12102
▁주제를	-12103
기나	-12104
▁98	-12105
▁반경	-12106
▁신탁	-12107
▁일명	-12108
풍으로	-12109
▁공부를	-12110
▁재능을	-12111
▁텍스트	-12112
군단	-12113
등으로	-12114
▁일리노	-12115
▁개교	-12116
▁본부	-12117
▁점에	-12118
▁트루	-12119
▁포병	-12120
▁생산을	-12121
▁차례의	-12122
▁평가했다	-12123
▁나이지리아	-12124
▁호의	-12125
▁물러나	-12126
▁수준으로	-12127
▁실질적으로	-12128
해온	-12129
▁누르	-12130
사업을	-12131
▁고등학교를	-12132
돌을	-12133
허가	-12134
협력	-12135
▁동행	-12136
▁알을	-12137
▁유년	-12138
▁동안의	-12139
▁시절의	-12140
비서	-12141
▁시트	-12142
나가는	-12143
▁때에도	-12144
▁아버지인	-12145
SD	-12146
위인	-12147
▁손꼽	-12148
▁주체	-12149
▁발언을	-12150
▁스리랑	-12151
▁내용으로	-12152
sh	-12153
약한	-12154
▁대전이	-12155
코르	-12156
▁공익	-12157
▁마스	-12158
▁암흑	-12159
▁연상	-12160
▁기존에	-12161
▁올랐고	-12162
▁유사하다	-12163
▁대합	-12164
▁속하며	-12165
▁완벽한	-12166
▁중반에	-12167
▁효과적으로	-12168
작이다	-12169
▁결론을	-12170
▁고려의	-12171
▁접근할	-12172
▁표현하는	-12173
고와	-12174
비뉴	-12175
▁이내에	-12176
▁조정에	-12177
▁단계에서	-12178
평군	-12179
환이	-12180
▁잡혀	-12181
▁정해	-12182
▁밴드를	-12183
▁지키는	-12184
▁페르난	-12185
▁이루어지지	-12186
금지	-12187
들여	-12188
루에	-12189
해양	-12190
▁강점	-12191
▁20%	-12192
기게	-12193
루션	-12194
업은	-12195
▁밝히고	-12196
종교	-12197
▁연꽃	-12198
▁이케	-12199
▁출처	-12200
▁수상한	-12201
▁조건이	-12202
두에	-12203
열은	-12204
▁담아	-12205
▁리우	-12206
▁베니	-12207
관계가	-12208
▁실패한	-12209
위원회를	-12210
odice	-12211
iz	-12212
▁백색	-12213
▁목소리를	-12214
▁학생들은	-12215
로이	-12216
▁떨어졌다	-12217
디언	-12218
for	-12219
▁기증	-12220
▁선배	-12221
▁유저	-12222
▁편곡	-12223
▁나폴리	-12224
▁시즌은	-12225
▁언어는	-12226
도바	-12227
주지	-12228
▁혐의	-12229
▁소송을	-12230
유적	-12231
▁DJ	-12232
▁토니	-12233
상규	-12234
세종	-12235
쪽은	-12236
▁마우	-12237
▁수면	-12238
▁핸드	-12239
▁유래된	-12240
▁작용을	-12241
▁근무했다	-12242
AP	-12243
값을	-12244
났을	-12245
▁대가	-12246
▁신시	-12247
▁기독교의	-12248
▁월드컵에	-12249
▁이루어지는	-12250
▁탤	-12251
▁갤럭시	-12252
▁건설을	-12253
▁비밀리에	-12254
▁산출	-12255
▁성사	-12256
운동의	-12257
▁육군의	-12258
▁있거나	-12259
각은	-12260
나리	-12261
철은	-12262
▁높게	-12263
▁실망	-12264
았다고	-12265
▁단어는	-12266
▁문자를	-12267
▁속도는	-12268
▁없어서	-12269
왕에	-12270
.3%	-12271
▁걱정	-12272
▁곳의	-12273
▁나은	-12274
▁경제의	-12275
▁마을에서	-12276
당해	-12277
▁노태	-12278
▁시는	-12279
▁체류	-12280
▁당연히	-12281
▁카를로	-12282
▁포로로	-12283
up	-12284
개와	-12285
▁각자	-12286
▁대치	-12287
▁어른	-12288
▁협동	-12289
▁문서를	-12290
▁취하고	-12291
▁러시아는	-12292
▁르네상스	-12293
▁진행되는	-12294
술의	-12295
.8%	-12296
ert	-12297
▁낳은	-12298
▁수련	-12299
▁죽이	-12300
▁환영	-12301
탈리아	-12302
▁범위를	-12303
▁전반에	-12304
▁형태이다	-12305
.7%	-12306
▁카타	-12307
▁피츠	-12308
▁화강	-12309
그라드	-12310
▁선정한	-12311
▁대통령과	-12312
▁대한민국과	-12313
풍이	-12314
▁선이	-12315
▁중산	-12316
했음을	-12317
▁게임에	-12318
▁영향이	-12319
▁등장인물	-12320
▁펌	-12321
.4%	-12322
▁김수	-12323
▁따온	-12324
▁게이트	-12325
▁무조건	-12326
▁운영을	-12327
▁주목할	-12328
▁최소한	-12329
▁둘러싸여	-12330
Hz	-12331
▁시와	-12332
▁중일	-12333
▁지녔	-12334
▁횡단	-12335
▁설명할	-12336
▁평가된다	-12337
IM	-12338
연료	-12339
-11	-12340
▁도시에	-12341
▁구분된다	-12342
▁시칠리아	-12343
3,	-12344
막을	-12345
증의	-12346
타입	-12347
희가	-12348
렸지만	-12349
▁도카이	-12350
▁어려서	-12351
▁지냈고	-12352
▁마찬가지	-12353
▁프랑스가	-12354
벽을	-12355
▁까닭	-12356
▁왕세	-12357
층으로	-12358
▁회장을	-12359
▁때문이라고	-12360
▁예정이었으나	-12361
발이	-12362
키와	-12363
▁공채	-12364
▁수에	-12365
▁유연	-12366
▁지폐	-12367
루에서	-12368
▁원인을	-12369
▁존재할	-12370
▁현재에	-12371
▁되었다가	-12372
ib	-12373
토르	-12374
▁응원	-12375
▁인산	-12376
▁드러머	-12377
▁말하면	-12378
▁미래의	-12379
▁정도를	-12380
▁닥터	-12381
▁신선	-12382
▁후임으로	-12383
.1%	-12384
▁성분	-12385
▁기준을	-12386
▁엔진은	-12387
▁온도가	-12388
▁중점을	-12389
▁1899	-12390
▁옴	-12391
함마	-12392
▁꽃은	-12393
▁놀이	-12394
▁대두	-12395
▁자를	-12396
▁충남	-12397
되도록	-12398
언어	-12399
운을	-12400
▁국군	-12401
▁미디	-12402
▁예선에서	-12403
도비	-12404
▁아홉	-12405
▁용의	-12406
▁문화방송	-12407
▁크리스마스	-12408
▁조립	-12409
▁헤라	-12410
감으로	-12411
▁유로파	-12412
▁중앙아시아	-12413
ey	-12414
▁팜	-12415
노에	-12416
즈로	-12417
▁낱말	-12418
▁때인	-12419
▁폭스	-12420
심에서	-12421
▁구단이	-12422
▁아열대	-12423
▁도요토미	-12424
▁위치하는	-12425
▁61	-12426
▁가족의	-12427
보통학교	-12428
▁지역구의	-12429
▁인터페이스	-12430
변의	-12431
주어	-12432
컨대	-12433
▁FM	-12434
▁상장	-12435
▁영지	-12436
타이드	-12437
▁구성되었다	-12438
파르	-12439
▁만일	-12440
▁증후	-12441
▁품고	-12442
층석탑	-12443
▁경제는	-12444
양성	-12445
하와	-12446
▁메소	-12447
▁비자	-12448
▁스캔	-12449
▁잭슨	-12450
▁하부	-12451
▁부근에	-12452
▁새겨진	-12453
▁제작을	-12454
그가	-12455
레타	-12456
▁96	-12457
▁거제	-12458
▁사모	-12459
▁병으로	-12460
▁싱어송	-12461
▁지나면서	-12462
▁가량	-12463
▁더해	-12464
▁충성	-12465
▁치른	-12466
▁본인이	-12467
▁오프닝	-12468
▁형성하는	-12469
에다	-12470
토와	-12471
판매	-12472
화물	-12473
▁걸린	-12474
▁빈번	-12475
▁오타	-12476
▁유학을	-12477
▁1903	-12478
▁유교	-12479
▁키워	-12480
▁그려진	-12481
▁도미니	-12482
▁설치하고	-12483
▁얕	-12484
▁옌	-12485
황제	-12486
▁달이	-12487
▁발병	-12488
▁배상	-12489
▁하원	-12490
▁베네딕	-12491
▁실시한	-12492
▁3.	-12493
▁비용이	-12494
▁기록으로	-12495
▁상트페테르부르크	-12496
▁네오	-12497
▁스폰	-12498
▁신중	-12499
▁알지	-12500
▁역사의	-12501
▁결혼하였다	-12502
CC	-12503
준비	-12504
ism	-12505
▁로이	-12506
▁팔라	-12507
▁편에	-12508
▁한층	-12509
▁1884	-12510
▁발견하였다	-12511
ng	-12512
근은	-12513
기계	-12514
버리	-12515
질러	-12516
▁불명	-12517
▁신축	-12518
▁일체	-12519
▁왕국은	-12520
▁취임했다	-12521
불을	-12522
샤바	-12523
았기	-12524
▁도는	-12525
▁간단히	-12526
▁전라도	-12527
▁하에서	-12528
▁환자의	-12529
근이	-12530
주자	-12531
가지의	-12532
글라데	-12533
정책을	-12534
▁죽였다	-12535
▁불가능한	-12536
으로부터의	-12537
▁콘스탄티노폴리스	-12538
위기	-12539
▁김기	-12540
▁무료로	-12541
▁베드로	-12542
▁비율은	-12543
▁서비스는	-12544
▁포기하고	-12545
리얼	-12546
집단	-12547
▁견제	-12548
▁왕을	-12549
▁확신	-12550
▁작업이	-12551
▁정권의	-12552
▁조사에	-12553
▁클래스	-12554
들에게는	-12555
했습니다	-12556
FM	-12557
가장	-12558
팀을	-12559
▁이라	-12560
▁호조	-12561
사들이	-12562
▁아라비아	-12563
▁차지하며	-12564
우기	-12565
▁무의	-12566
▁내려가	-12567
▁단어를	-12568
▁주장에	-12569
▁셸	-12570
나스	-12571
링은	-12572
보르	-12573
▁극동	-12574
▁제곱	-12575
▁피트	-12576
▁것인지	-12577
▁루이지	-12578
▁연세대학교	-12579
▁가구	-12580
▁아크	-12581
▁유산	-12582
행위를	-12583
▁그곳에	-12584
▁대회가	-12585
▁성능을	-12586
▁위험이	-12587
▁개인적인	-12588
만과	-12589
▁내야	-12590
▁두꺼	-12591
▁세자	-12592
▁확실한	-12593
적으로도	-12594
▁결정된다	-12595
▁공격하여	-12596
▁나중에는	-12597
▁드러났다	-12598
두를	-12599
조한	-12600
▁분당	-12601
협의회	-12602
▁득표율	-12603
▁무대를	-12604
▁쳐들어	-12605
▁입장에서	-12606
▁붐	-12607
▁플랜	-12608
▁고유의	-12609
▁쿠데타	-12610
▁서비스가	-12611
내지	-12612
▁없었	-12613
▁이북	-12614
▁자의	-12615
▁결성된	-12616
▁나란히	-12617
▁바오로	-12618
▁태양을	-12619
▁결정한다	-12620
▁킬로미터	-12621
▁한미	-12622
▁가수로	-12623
▁산하에	-12624
▁주도로	-12625
▁복귀하였다	-12626
)』	-12627
거의	-12628
혹한	-12629
▁목록에	-12630
▁보내고	-12631
▁수익을	-12632
▁영화가	-12633
▁게임에서	-12634
▁그렇지만	-12635
받게	-12636
생명	-12637
표가	-12638
▁깨끗	-12639
▁비타	-12640
▁싸워	-12641
▁왜곡	-12642
▁포장	-12643
▁대학생	-12644
▁행동에	-12645
루냐	-12646
인구	-12647
▁강연	-12648
▁디렉	-12649
▁카트	-12650
파이어	-12651
""()	-12652
▁길이의	-12653
TP	-12654
▁주오	-12655
▁음악은	-12656
▁정치에	-12657
▁캠퍼스	-12658
기니	-12659
사리	-12660
▁가려	-12661
▁민병	-12662
▁제수	-12663
▁취재	-12664
▁나타낸	-12665
▁말까지	-12666
▁별개의	-12667
문자	-12668
투자	-12669
▁나섰	-12670
▁성숙	-12671
▁정무	-12672
▁정조	-12673
▁가로지	-12674
▁올림픽의	-12675
▁<	-12676
환은	-12677
▁기아	-12678
▁별은	-12679
▁청원	-12680
▁한인	-12681
▁작업에	-12682
▁스케이팅	-12683
미스	-12684
빈은	-12685
▁대웅	-12686
들보다	-12687
▁고향인	-12688
▁중대한	-12689
ET	-12690
왔던	-12691
ost	-12692
▁서초	-12693
속으로	-12694
▁미시간	-12695
▁제치고	-12696
▁진행하고	-12697
ly	-12698
▁상응	-12699
▁케임	-12700
▁가톨릭교회	-12701
융합	-12702
▁정말	-12703
▁플러	-12704
▁제한된	-12705
▁시작하면서	-12706
난성	-12707
헌법	-12708
▁골프	-12709
▁소말	-12710
가이자	-12711
▁격렬한	-12712
▁카리브	-12713
▁과일	-12714
▁비단	-12715
▁파란색	-12716
▁결혼하여	-12717
▁눌	-12718
▁검출	-12719
▁고령	-12720
▁폭로	-12721
층에서	-12722
▁모양이	-12723
▁음악적	-12724
▁점령하고	-12725
▁변수	-12726
▁슈팅	-12727
렉스	-12728
모에	-12729
이하	-12730
트륨	-12731
▁거북	-12732
▁노트	-12733
▁민영	-12734
▁니콜라	-12735
▁산업의	-12736
▁세력의	-12737
▁플레이어는	-12738
씨로	-12739
푸아	-12740
600	-12741
▁IP	-12742
▁아기	-12743
▁소비자	-12744
▁77	-12745
▁MS	-12746
▁이준	-12747
▁지위	-12748
▁테무	-12749
야마현	-12750
▁자료가	-12751
▁정치를	-12752
▁담당했다	-12753
▁연결되는	-12754
▁가나가와현	-12755
LA	-12756
나서	-12757
로우	-12758
왕조	-12759
통제	-12760
▁67	-12761
▁돌출	-12762
▁레논	-12763
▁무슨	-12764
▁벌금	-12765
▁입을	-12766
▁전동	-12767
▁30%	-12768
▁물건을	-12769
▁재판을	-12770
4)	-12771
갈색	-12772
추는	-12773
▁드는	-12774
▁아닐	-12775
▁애덤	-12776
▁원천	-12777
▁잔류	-12778
▁총칭	-12779
▁광저우	-12780
▁중추원	-12781
▁이때부터	-12782
롭고	-12783
마로	-12784
▁밖에도	-12785
▁세포의	-12786
▁증가했다	-12787
▁굿	-12788
어리	-12789
▁남게	-12790
▁바빌	-12791
▁번에	-12792
▁선비	-12793
▁보도했다	-12794
▁시스템에	-12795
▁왓	-12796
네시	-12797
▁진지	-12798
때문에	-12799
▁부드러운	-12800
▁아시안컵	-12801
▁한국시리즈	-12802
▁돌입	-12803
▁시바	-12804
▁충실	-12805
▁크기를	-12806
▁길에	-12807
▁박쥐	-12808
▁안치	-12809
▁편지	-12810
▁여파로	-12811
▁가정에서	-12812
▁요청했다	-12813
▁쓰촨	-12814
▁바티칸	-12815
▁쓰시마	-12816
▁지도를	-12817
▁받았다고	-12818
대손	-12819
▁네팔	-12820
▁적다	-12821
▁일리노이	-12822
커의	-12823
테면	-12824
400	-12825
▁가볍	-12826
▁미즈	-12827
▁창출	-12828
궁의	-12829
두로	-12830
래스	-12831
아비	-12832
잡이	-12833
집이	-12834
ace	-12835
▁간신	-12836
▁넓게	-12837
▁있음	-12838
지금의	-12839
▁기초로	-12840
▁마오쩌	-12841
▁외에는	-12842
▁방글라데	-12843
▁해상에서	-12844
▁r	-12845
라톱	-12846
▁무실	-12847
▁표지	-12848
▁희극	-12849
▁교회를	-12850
▁의미는	-12851
▁한국은	-12852
▁허가를	-12853
▁생물학적	-12854
▁물의	-12855
▁불상	-12856
▁장성	-12857
▁중복	-12858
화이다	-12859
▁경찰의	-12860
▁대표적	-12861
▁도입된	-12862
▁스튜디오에서	-12863
(7	-12864
▁종착	-12865
▁토요	-12866
레이터	-12867
형이다	-12868
▁수비수	-12869
서구	-12870
훈은	-12871
▁관련해	-12872
▁바이오	-12873
▁이탈리아에서	-12874
디를	-12875
팀에	-12876
퍼는	-12877
▁대안	-12878
년대와	-12879
▁국제적	-12880
▁새로이	-12881
▁절차를	-12882
대왕	-12883
▁앙리	-12884
▁고구려의	-12885
▁아니라는	-12886
가요	-12887
판에서	-12888
▁시리즈는	-12889
▁위원회의	-12890
운다	-12891
▁아타	-12892
▁앞면	-12893
▁처녀	-12894
▁청소	-12895
▁피로	-12896
▁빨간색	-12897
▁불가능하다	-12898
RA	-12899
인권	-12900
▁막시	-12901
▁보게	-12902
▁토지를	-12903
▁도시에서	-12904
▁발견되어	-12905
▁부채	-12906
▁북구	-12907
▁죽어	-12908
▁코어	-12909
▁퇴임	-12910
▁펠리	-12911
▁소행성	-12912
▁이곳을	-12913
▁1860	-12914
▁주어졌다	-12915
▁비판하였다	-12916
▁그후	-12917
▁용병	-12918
▁작가의	-12919
▁평화를	-12920
▁6,	-12921
▁갱신	-12922
▁대도시	-12923
▁불리고	-12924
▁상황은	-12925
▁유지하기	-12926
pe	-12927
▁딘	-12928
▁같은해	-12929
시켰으며	-12930
▁계획이다	-12931
▁사랑하는	-12932
나에	-12933
▁개가	-12934
▁등용	-12935
▁발칸	-12936
▁브란	-12937
되므로	-12938
▁국왕의	-12939
▁의원을	-12940
▁학문을	-12941
▁3,000	-12942
키를	-12943
▁경기의	-12944
▁연구에서	-12945
심히	-12946
차량	-12947
ond	-12948
▁선종	-12949
▁유권	-12950
동이다	-12951
받았고	-12952
호선과	-12953
탄의	-12954
▁마일	-12955
당하는	-12956
▁가문은	-12957
▁선출된	-12958
▁승무원	-12959
▁장비를	-12960
▁정치적인	-12961
아야	-12962
영과	-12963
▁섬을	-12964
▁경계로	-12965
▁바이킹	-12966
거진	-12967
더의	-12968
세트	-12969
▁도미	-12970
▁쌓은	-12971
▁임관	-12972
▁파스	-12973
▁데뷔하였고	-12974
▁덤	-12975
▁김규	-12976
▁로즈	-12977
▁모은	-12978
▁응시	-12979
▁다니엘	-12980
▁드라이버	-12981
▁수장	-12982
▁파벌	-12983
▁해고	-12984
계약을	-12985
이었을	-12986
▁사용되지	-12987
▁기숙	-12988
▁남원	-12989
▁신부	-12990
▁중공	-12991
터미널	-12992
▁규정에	-12993
▁코드를	-12994
▁야마가타	-12995
슈퍼	-12996
히토	-12997
▁재미	-12998
▁하차	-12999
▁헌법에	-13000
(8	-13001
길이	-13002
▁랜드	-13003
▁삿포로	-13004
▁오사카부	-13005
에미	-13006
▁몸의	-13007
▁이진	-13008
▁호응	-13009
번으로	-13010
▁요새를	-13011
▁파일을	-13012
▁설립되었으며	-13013
신도	-13014
▁고산	-13015
▁냄새	-13016
▁환상	-13017
▁전하는	-13018
▁볼리비아	-13019
블리	-13020
▁EP	-13021
▁회수	-13022
선수권	-13023
▁문화와	-13024
▁보여준	-13025
▁분리된	-13026
ii	-13027
▁사관	-13028
▁실전	-13029
▁보다는	-13030
▁제목의	-13031
▁진출한	-13032
셈부르크	-13033
▁토너먼트	-13034
▁드래프트에서	-13035
클로	-13036
▁기회	-13037
▁선로	-13038
▁쪽은	-13039
▁질문에	-13040
▁투어를	-13041
▁학생들의	-13042
진보	-13043
화할	-13044
▁권총	-13045
▁잘라	-13046
▁패널	-13047
▁현금	-13048
▁소리가	-13049
OP	-13050
▁경찰이	-13051
▁시대가	-13052
▁=	-13053
▁커널	-13054
▁퀘벡	-13055
본으로	-13056
지역에	-13057
품으로	-13058
▁사업에	-13059
▁섬으로	-13060
▁공격으로	-13061
▁정차한다	-13062
절이	-13063
쿠니	-13064
▁맺은	-13065
하기는	-13066
▁달한다	-13067
▁거부하고	-13068
▁분위기를	-13069
▁시즌에서	-13070
세르	-13071
▁넘게	-13072
▁성공회	-13073
▁카스티	-13074
강은	-13075
이한	-13076
전시	-13077
▁고래	-13078
▁발각	-13079
▁실력	-13080
▁피의	-13081
▁뒤에도	-13082
▁선발로	-13083
▁영국에	-13084
▁조직이	-13085
▁대학교를	-13086
▁발생하여	-13087
린을	-13088
▁가동	-13089
▁루터	-13090
▁숨어	-13091
▁양육	-13092
▁에콰	-13093
누스의	-13094
▁경향을	-13095
▁계약이	-13096
▁예수의	-13097
▁혁명의	-13098
▁흥선대원	-13099
DA	-13100
슬리	-13101
▁간토	-13102
▁달걀	-13103
▁우르	-13104
▁사람들과	-13105
▁은퇴했다	-13106
설에	-13107
점인	-13108
▁없던	-13109
▁에미	-13110
▁설치하여	-13111
▁종교개혁	-13112
▁견인	-13113
가들이	-13114
감은	-13115
▁맞대	-13116
▁비주	-13117
▁사범	-13118
▁페르디난	-13119
▁내무	-13120
▁무상	-13121
▁원을	-13122
▁주위	-13123
▁컴퍼	-13124
▁건설된	-13125
▁시장의	-13126
▁테니스	-13127
무로	-13128
▁그랜	-13129
▁믿는	-13130
베르토	-13131
▁이해할	-13132
▁하이드	-13133
▁조선로동당	-13134
신학	-13135
야에	-13136
하루	-13137
▁78	-13138
▁문예	-13139
▁사토	-13140
▁80%	-13141
▁벼슬을	-13142
▁위원장	-13143
▁흔적이	-13144
▁오케스트라	-13145
발로	-13146
▁앞장	-13147
▁트래	-13148
▁형상	-13149
▁모티브	-13150
▁프랭크	-13151
▁것입니다	-13152
급을	-13153
순환	-13154
▁마블	-13155
▁말미	-13156
▁숙청	-13157
▁점프	-13158
▁헌정	-13159
▁거부했다	-13160
▁DC	-13161
▁과반	-13162
▁병을	-13163
▁지류	-13164
기관의	-13165
▁교회는	-13166
▁파이어	-13167
▁마하	-13168
▁무성	-13169
▁시공	-13170
공무원	-13171
▁승강장을	-13172
건축	-13173
칼라	-13174
루이스	-13175
▁아름답	-13176
▁하원의	-13177
RT	-13178
▁겁	-13179
ass	-13180
▁짐작	-13181
▁카스	-13182
레스의	-13183
▁도왔다	-13184
▁로마에	-13185
집행	-13186
황이	-13187
▁수료	-13188
▁문제와	-13189
▁사용하면	-13190
▁제기되었다	-13191
생은	-13192
ood	-13193
▁76	-13194
▁조조	-13195
소이다	-13196
머는	-13197
보니	-13198
적과	-13199
피가	-13200
▁거뒀	-13201
▁보헤	-13202
▁불태	-13203
▁상세	-13204
▁얼음	-13205
▁영문	-13206
▁이데	-13207
▁캔자스	-13208
▁그로부터	-13209
▁일어나고	-13210
▁증가하고	-13211
▁프로덕션	-13212
aw	-13213
〉(	-13214
벌레	-13215
▁균형을	-13216
▁조선에	-13217
▁실시하고	-13218
▁선도	-13219
▁탐색	-13220
▁더이상	-13221
▁지구에	-13222
▁투수가	-13223
oy	-13224
단지	-13225
대대	-13226
미즈	-13227
봉사	-13228
com	-13229
▁오비	-13230
▁야마토	-13231
▁자세히	-13232
▁해마다	-13233
트로이트	-13234
▁출신이며	-13235
▁알려져있다	-13236
▁팔레스타인	-13237
▁북방	-13238
▁자선	-13239
▁카우	-13240
▁칼뱅	-13241
▁경로를	-13242
역학	-13243
해로	-13244
▁끌고	-13245
▁법의	-13246
▁생체	-13247
▁인간을	-13248
칼리	-13249
▁집결	-13250
▁갈등이	-13251
▁궤도를	-13252
▁점수를	-13253
락이	-13254
병은	-13255
▁허위	-13256
지었다	-13257
▁물질이	-13258
▁임명된	-13259
▁수단으로	-13260
▁건축물이다	-13261
운이	-13262
▁들려	-13263
▁음료	-13264
▁중장	-13265
▁초신	-13266
▁탐구	-13267
▁기간이	-13268
▁동유럽	-13269
▁센다이	-13270
▁치열한	-13271
▁베트남의	-13272
將軍	-13273
▁국소	-13274
▁분출	-13275
▁수색	-13276
▁오지	-13277
▁측에	-13278
책으로	-13279
▁똑같은	-13280
▁청와대	-13281
▁트리플	-13282
가수	-13283
▁긴장	-13284
▁범유	-13285
▁온갖	-13286
클레오	-13287
▁데뷔한	-13288
▁되었다는	-13289
▁영화배우	-13290
▁형성되어	-13291
▁뾰	-13292
름의	-13293
테크	-13294
푸르	-13295
푸스	-13296
한이	-13297
▁모인	-13298
▁정립	-13299
▁포착	-13300
▁휴전	-13301
▁야마구치	-13302
▁랴	-13303
▁반공	-13304
▁성서	-13305
▁전날	-13306
▁1897	-13307
▁역임하고	-13308
▁진행했다	-13309
▁김경	-13310
▁배가	-13311
▁요시노	-13312
▁씌	-13313
소타	-13314
▁교리	-13315
▁기어	-13316
▁동참	-13317
▁옵션	-13318
▁주사	-13319
▁치안	-13320
▁해명	-13321
▁메달을	-13322
▁쌍둥이	-13323
▁어렸을	-13324
▁미시시피	-13325
번지	-13326
▁농림	-13327
▁사정	-13328
기록을	-13329
~6	-13330
야와	-13331
ial	-13332
▁상인	-13333
▁성주	-13334
▁공격수	-13335
▁볼셰비	-13336
▁창원시	-13337
▁토요일	-13338
▁가옥	-13339
▁직장	-13340
▁방법에	-13341
▁안전한	-13342
▁회사인	-13343
▁해당된다	-13344
취를	-13345
티나	-13346
▁소통	-13347
▁입헌	-13348
▁자칭	-13349
▁묘사한	-13350
▁무대로	-13351
▁붙여진	-13352
▁1800	-13353
▁인정하는	-13354
▁만료	-13355
▁윤리	-13356
▁충전	-13357
》(,	-13358
▁가격이	-13359
▁라이언	-13360
▁모습은	-13361
▁1880	-13362
▁우승했다	-13363
츠크	-13364
하임	-13365
▁구스타	-13366
▁브로드	-13367
▁장군은	-13368
▁회사이다	-13369
신에	-13370
▁만세	-13371
▁번성	-13372
▁진공	-13373
▁들어올	-13374
▁선수들	-13375
▁장애인	-13376
▁그러다가	-13377
▁헝가리의	-13378
▁솜	-13379
마크	-13380
밀히	-13381
▁영유	-13382
▁우회	-13383
▁타협	-13384
▁각국의	-13385
▁미야기	-13386
▁한성부	-13387
▁취임하였다	-13388
ack	-13389
▁공천	-13390
집에	-13391
스카르	-13392
▁여성을	-13393
▁자랐다	-13394
▁질량이	-13395
▁청주시	-13396
브르	-13397
살의	-13398
.9%	-13399
▁석회	-13400
▁시립	-13401
▁퍼포	-13402
▁페리	-13403
▁The	-13404
▁건축물	-13405
▁경기로	-13406
▁연합군	-13407
▁토너먼	-13408
▁5,000	-13409
이시	-13410
▁부재	-13411
도르프	-13412
스트리	-13413
▁인터페이	-13414
▁극대	-13415
▁무척	-13416
▁산의	-13417
▁오쿠	-13418
▁제도는	-13419
▁프랑수아	-13420
▁싱어송라이터	-13421
나오	-13422
분과	-13423
▁유라	-13424
▁이룩	-13425
▁히타	-13426
▁극심한	-13427
▁아키타	-13428
▁연평균	-13429
▁1871	-13430
국적	-13431
▁공습	-13432
▁박스	-13433
▁안성	-13434
▁이닝	-13435
▁종족	-13436
▁튀니	-13437
▁평평	-13438
▁곡들은	-13439
벨라	-13440
시게	-13441
커가	-13442
▁가열	-13443
▁부호	-13444
▁자오	-13445
▁인증을	-13446
▁장소로	-13447
▁종로구	-13448
세기까지	-13449
▁학생들을	-13450
▁대표적으로	-13451
▁기단	-13452
▁돌을	-13453
▁시종	-13454
소송법	-13455
스트에	-13456
▁국가와	-13457
▁막부의	-13458
▁아마존	-13459
▁파리의	-13460
▁각지에서	-13461
▁성립한다	-13462
▁의미하며	-13463
▁자아	-13464
▁아나키	-13465
▁1885	-13466
▁통일신라	-13467
▁슬로베니아	-13468
공주	-13469
▁살려	-13470
▁헤비	-13471
▁리그인	-13472
▁사전에	-13473
▁역사와	-13474
▁주위에	-13475
루수	-13476
▁상담	-13477
▁추종	-13478
업으로	-13479
▁결정에	-13480
▁소문이	-13481
▁유럽과	-13482
▁디자인은	-13483
강전	-13484
▁양반	-13485
우스가	-13486
▁부대가	-13487
▁싸우는	-13488
▁고려하여	-13489
녀는	-13490
ath	-13491
▁급성	-13492
▁세네	-13493
▁끌었다	-13494
▁선택할	-13495
▁상관없이	-13496
▁클라이언	-13497
▁룩셈부르크	-13498
당인	-13499
뮤직	-13500
▁고기	-13501
▁안테	-13502
차이나	-13503
▁2-0	-13504
▁오로지	-13505
▁자체의	-13506
대학교의	-13507
▁개념으로	-13508
▁포스트시즌	-13509
▁미친	-13510
▁뽑아	-13511
▁세상	-13512
▁하남	-13513
사회의	-13514
▁가지의	-13515
▁세워져	-13516
▁활발히	-13517
년대까지	-13518
▁압도적인	-13519
▁필요성을	-13520
▁명명되었다	-13521
▁아이스하키	-13522
티가	-13523
▁해의	-13524
▁서쪽의	-13525
▁진행하는	-13526
▁페이스북	-13527
▁체포되었다	-13528
너가	-13529
▁말의	-13530
▁절단	-13531
석에서	-13532
▁비하여	-13533
▁소련이	-13534
▁흐름을	-13535
▁몫	-13536
망에	-13537
▁부설	-13538
▁토르	-13539
▁투명	-13540
▁동쪽의	-13541
▁레스토	-13542
▁일제의	-13543
▁정책은	-13544
▁뻔	-13545
▁구의	-13546
▁그루	-13547
▁아담	-13548
▁정권이	-13549
▁지역인	-13550
▁휘하의	-13551
▁공격했다	-13552
▁방문하여	-13553
▁하시	-13554
▁회피	-13555
스키는	-13556
오스트	-13557
테이션	-13558
▁뮤지션	-13559
▁비행기	-13560
▁세력은	-13561
▁정기적으로	-13562
▁곤란	-13563
▁권유	-13564
▁발의	-13565
▁실력을	-13566
▁알리는	-13567
▁오리콘	-13568
법인이다	-13569
▁1870	-13570
HO	-13571
관련	-13572
무가	-13573
원인	-13574
▁감리	-13575
▁늦게	-13576
▁위와	-13577
▁기하여	-13578
▁일대의	-13579
▁디트로이트	-13580
토모	-13581
▁겪고	-13582
▁줄여	-13583
▁청산	-13584
▁퇴역	-13585
▁평정	-13586
빌라이	-13587
▁대표는	-13588
▁분석을	-13589
▁중국은	-13590
사도	-13591
양함	-13592
평론	-13593
▁73	-13594
▁감싸	-13595
▁동조	-13596
▁모용	-13597
▁선과	-13598
법이다	-13599
양으로	-13600
▁독일에	-13601
▁바꾸는	-13602
▁지도자로	-13603
능한	-13604
▁가늘	-13605
▁꼭짓	-13606
▁불꽃	-13607
▁영등	-13608
▁온대	-13609
▁타당	-13610
▁헬리	-13611
프레스	-13612
▁뉴욕의	-13613
ES	-13614
▁경작	-13615
▁곡이다	-13616
▁나오고	-13617
▁목록을	-13618
▁무함마	-13619
▁엮	-13620
메가	-13621
훈을	-13622
▁7,	-13623
▁법조	-13624
▁윤보	-13625
▁레인저	-13626
▁말부터	-13627
▁시뮬레이션	-13628
▁이스라엘의	-13629
일자	-13630
▁약혼	-13631
▁협정	-13632
▁가깝다	-13633
▁가족과	-13634
▁종목은	-13635
▁받으면서	-13636
▁인터내셔널	-13637
▁이송	-13638
위원을	-13639
▁그룹에	-13640
▁자기의	-13641
▁대대적인	-13642
지아	-13643
▁MP	-13644
▁고트	-13645
▁중종	-13646
▁추첨	-13647
▁캠프	-13648
정부는	-13649
▁불규칙	-13650
▁전략을	-13651
▁나타내고	-13652
▁우즈베키스탄	-13653
편성	-13654
ide	-13655
▁성종	-13656
▁전지	-13657
역까지	-13658
해졌고	-13659
▁기반한	-13660
▁기여를	-13661
▁시작할	-13662
▁열차를	-13663
▁통과하는	-13664
전국	-13665
▁석탑	-13666
▁차용	-13667
▁대신해	-13668
▁저작권	-13669
▁집안의	-13670
▁가르쳤다	-13671
▁급제하여	-13672
▁여겨졌다	-13673
▁시작하였으며	-13674
빈의	-13675
▁매매	-13676
▁세비	-13677
▁엔딩	-13678
▁미치지	-13679
▁올리는	-13680
▁이루며	-13681
기자	-13682
녀의	-13683
▁69	-13684
▁때가	-13685
▁마인	-13686
▁쓰레	-13687
▁양을	-13688
▁경상도	-13689
▁리더십	-13690
▁산하의	-13691
▁투수로	-13692
▁드라이브	-13693
▁아소	-13694
▁절차	-13695
▁헬륨	-13696
▁방사성	-13697
▁서울대	-13698
▁순위를	-13699
▁시험을	-13700
▁통치를	-13701
▁선수단은	-13702
GC	-13703
재단	-13704
▁대교	-13705
▁더글	-13706
▁라마	-13707
왕후의	-13708
▁병원에서	-13709
▁도입하였다	-13710
MI	-13711
ox	-13712
림과	-13713
▁배려	-13714
▁배후	-13715
▁볼로	-13716
여명의	-13717
▁완성된	-13718
격은	-13719
▁태극	-13720
▁2.0	-13721
▁가져온	-13722
▁나라는	-13723
▁소련은	-13724
▁중국인	-13725
▁기록되었다	-13726
_2	-13727
▁맵	-13728
표는	-13729
▁다를	-13730
▁소모	-13731
▁손실	-13732
▁피를	-13733
▁현행	-13734
세기에는	-13735
라리	-13736
▁값이	-13737
▁것일	-13738
▁다테	-13739
들었다	-13740
▁민간인	-13741
▁생각이	-13742
▁쓰나미	-13743
▁파이널	-13744
▁표현한	-13745
본의	-13746
▁국유	-13747
▁360	-13748
▁기간은	-13749
▁못하여	-13750
▁유지할	-13751
▁이전까지	-13752
▁프로젝트는	-13753
지리	-13754
▁통영	-13755
▁서울의	-13756
▁증상이	-13757
되어있다	-13758
▁동일하게	-13759
▁발견되지	-13760
▁콜로라도	-13761
ee	-13762
노르	-13763
졌기	-13764
700	-13765
ick	-13766
▁대명	-13767
▁사서	-13768
▁연립	-13769
스트가	-13770
▁위주로	-13771
▁성적으로	-13772
▁오늘날에는	-13773
▁넬	-13774
염을	-13775
▁딸로	-13776
▁백화	-13777
▁사간	-13778
▁짧고	-13779
▁버전이	-13780
▁열린다	-13781
성인	-13782
▁맞고	-13783
▁무궁	-13784
▁불참	-13785
▁치렀고	-13786
▁도착했다	-13787
▁함부르크	-13788
▁효과적인	-13789
조부	-13790
해튼	-13791
▁각색	-13792
▁발령	-13793
웨이트	-13794
지지만	-13795
▁중심에	-13796
계에서는	-13797
▁아르헨티나의	-13798
▁궁궐	-13799
▁뾰족	-13800
▁판사	-13801
라디오	-13802
레스는	-13803
▁뒤이어	-13804
▁총리는	-13805
▁감수	-13806
키아의	-13807
▁(20	-13808
▁모두를	-13809
▁본래의	-13810
▁연구와	-13811
▁관계없이	-13812
▁제주특별자치도	-13813
맥스	-13814
운의	-13815
플레	-13816
행동	-13817
▁국어	-13818
▁실존	-13819
해야만	-13820
▁내리는	-13821
▁붙었다	-13822
▁지구를	-13823
▁원인으로	-13824
▁갑옷	-13825
▁다저	-13826
▁두께	-13827
▁즈음	-13828
▁흥미	-13829
▁되었던	-13830
▁은메달	-13831
▁중국을	-13832
▁살아있는	-13833
돌은	-13834
상도	-13835
▁농장	-13836
▁아날	-13837
▁압력	-13838
▁요약	-13839
▁정밀	-13840
▁제프	-13841
▁가족을	-13842
▁선생의	-13843
▁선수로서	-13844
법칙	-13845
이야	-13846
▁처분	-13847
▁투여	-13848
▁머리에	-13849
▁포스터	-13850
▁하도록	-13851
체고	-13852
포드	-13853
▁동점	-13854
▁뉴저지	-13855
▁송나라	-13856
▁수도를	-13857
LS	-13858
▁→	-13859
▁은거	-13860
▁이경	-13861
▁건조한	-13862
▁남성의	-13863
▁따뜻한	-13864
▁왔으며	-13865
▁혁명을	-13866
▁유지했다	-13867
▁5·	-13868
▁군이	-13869
▁꽃이	-13870
▁스태	-13871
▁얇은	-13872
▁유의	-13873
▁조화	-13874
▁중서	-13875
▁진실	-13876
▁제시한	-13877
▁토리노	-13878
▁임명되었고	-13879
산물	-13880
전략	-13881
▁세례	-13882
▁하라	-13883
▁국립공	-13884
▁이전부터	-13885
▁일이었다	-13886
▁적용되었다	-13887
▁쿤	-13888
말에	-13889
올라	-13890
▁함대	-13891
년에도	-13892
루시아	-13893
▁앨범의	-13894
▁게임으로	-13895
▁뷔	-13896
▁군청	-13897
▁내정	-13898
▁명목	-13899
▁본인	-13900
▁공격해	-13901
▁않아서	-13902
▁이르렀	-13903
▁인접해	-13904
슬레	-13905
원자	-13906
▁둔다	-13907
▁차를	-13908
▁커리	-13909
팀으로	-13910
▁그래미	-13911
▁올바른	-13912
▁동일하다	-13913
▁밭	-13914
쿠버	-13915
▁개를	-13916
▁미들	-13917
▁박헌	-13918
▁상경	-13919
▁누구나	-13920
▁영지를	-13921
▁의무를	-13922
주의적인	-13923
▁등장하였다	-13924
▁형성되었다	-13925
준이	-13926
▁요인	-13927
▁도로를	-13928
▁오르는	-13929
▁종교의	-13930
런은	-13931
▁제의	-13932
▁직할	-13933
▁태평	-13934
▁모니터	-13935
▁부드럽	-13936
▁친일파	-13937
▁현재도	-13938
▁나타나고	-13939
au	-13940
심은	-13941
온이	-13942
▁In	-13943
▁공손	-13944
▁맺어	-13945
▁않자	-13946
▁작아	-13947
▁테레	-13948
▁떨어뜨	-13949
▁사쿠라	-13950
▁섬이다	-13951
▁슬라브	-13952
시킴	-13953
찬을	-13954
▁기저	-13955
▁농경	-13956
▁수성	-13957
▁입국	-13958
법에서	-13959
수에서	-13960
▁인간은	-13961
▁함수의	-13962
▁대중교통	-13963
▁여우주연	-13964
▁지정되었다가	-13965
▁건륭	-13966
▁금성	-13967
▁독창	-13968
▁복용	-13969
자리에	-13970
▁부근에서	-13971
▁콘크리트	-13972
▁통합하여	-13973
OV	-13974
전차	-13975
▁들을	-13976
거리가	-13977
▁꼽힌다	-13978
▁지나는	-13979
▁간격으로	-13980
다드	-13981
▁감마	-13982
▁몸무	-13983
▁읽고	-13984
▁테르	-13985
▁판정	-13986
안에서	-13987
정부가	-13988
▁똑같이	-13989
▁열차의	-13990
▁유리한	-13991
▁의사소	-13992
▁제국과	-13993
창한	-13994
▁모호	-13995
▁사태가	-13996
▁개념이다	-13997
▁역사에서	-13998
▁시즌에서는	-13999
▁체코슬로바키아	-14000
몽골	-14001
800	-14002
호선이	-14003
▁가지로	-14004
▁고려시대	-14005
있게	-14006
출판	-14007
▁뛰었다	-14008
▁저기압	-14009
▁프란츠	-14010
▁노르웨이의	-14011
▁우크라이나의	-14012
민과	-14013
혹은	-14014
▁구해	-14015
▁다항	-14016
▁대패	-14017
▁불린	-14018
▁연못	-14019
에너지	-14020
▁가르침	-14021
▁논란을	-14022
▁스미스	-14023
▁서식지는	-14024
▁않았다는	-14025
네마	-14026
녀가	-14027
▁평을	-14028
▁효고현	-14029
▁중심지는	-14030
▁타이베이	-14031
자고	-14032
▁파산	-14033
▁한족	-14034
직으로	-14035
▁그것의	-14036
▁사항을	-14037
▁서울에	-14038
▁시도를	-14039
▁심하게	-14040
▁인류의	-14041
▁증거를	-14042
▁카드를	-14043
▁강조했다	-14044
▁수행한다	-14045
▁낙동	-14046
▁교수를	-14047
▁구간의	-14048
▁반응이	-14049
▁예이다	-14050
▁카르타	-14051
▁아무것도	-14052
▁프로그램인	-14053
액이	-14054
(13	-14055
lat	-14056
ore	-14057
▁CF	-14058
▁고소	-14059
▁글자	-14060
▁라오	-14061
▁우측	-14062
▁피겨	-14063
▁해변	-14064
▁내에서는	-14065
조각	-14066
▁5.	-14067
▁남구	-14068
▁리틀	-14069
▁방침	-14070
▁연소	-14071
▁조르	-14072
▁초월	-14073
▁싸웠다	-14074
▁청동기	-14075
▁로마에서	-14076
▁연합군의	-14077
번이	-14078
병과	-14079
좌상	-14080
▁면허	-14081
▁어쩔	-14082
▁파손	-14083
▁폭행	-14084
▁나라가	-14085
▁성향의	-14086
▁추구하는	-14087
▁경질	-14088
▁막는	-14089
▁맥스	-14090
▁싸움을	-14091
▁아스널	-14092
▁먹이	-14093
▁호출	-14094
학교의	-14095
▁그레고리오	-14096
▁꿀	-14097
▁제출한	-14098
▁출시한	-14099
버스터미널	-14100
▁샀	-14101
노를	-14102
트루	-14103
▁연봉	-14104
▁니콜라이	-14105
▁대체되었다	-14106
공연	-14107
난을	-14108
▁2.5	-14109
▁지리적	-14110
▁하루에	-14111
▁시즈오카	-14112
▁실패하고	-14113
▁97	-14114
▁어둠	-14115
▁도덕적	-14116
▁의혹을	-14117
▁보존되어	-14118
결혼	-14119
디와	-14120
▁충주	-14121
▁90%	-14122
▁사랑에	-14123
▁승리에	-14124
▁오피스	-14125
▁생겨났다	-14126
▁앞의	-14127
▁받아야	-14128
▁참여할	-14129
▁한계를	-14130
▁미네소타	-14131
개에	-14132
형제	-14133
바라키	-14134
▁영국이	-14135
▁미사일을	-14136
▁소재지는	-14137
▁전반적인	-14138
▁왈	-14139
▁감금	-14140
▁강에	-14141
▁여우	-14142
▁지옥	-14143
▁칸은	-14144
▁파동	-14145
▁프론	-14146
승으로	-14147
▁가사를	-14148
▁마을이	-14149
▁역까지	-14150
현실	-14151
▁서포	-14152
▁시노	-14153
▁신조	-14154
▁칼라	-14155
▁태자	-14156
▁회상	-14157
▁그룹이	-14158
▁내용에	-14159
▁믿었다	-14160
▁선수들의	-14161
▁영화제에서	-14162
격에	-14163
망의	-14164
보와	-14165
시인	-14166
채가	-14167
▁마야	-14168
▁집정	-14169
▁그룹을	-14170
▁물체의	-14171
▁시즌이다	-14172
▁연기했다	-14173
▁정상적인	-14174
▁사용하기도	-14175
공무	-14176
▁투항	-14177
▁현악	-14178
개월간	-14179
군이다	-14180
▁스카우	-14181
GB	-14182
분열	-14183
설은	-14184
청구	-14185
▁초빙	-14186
속에서	-14187
▁문과에	-14188
▁역할은	-14189
▁의혹이	-14190
▁주연을	-14191
▁코치를	-14192
▁협력을	-14193
▁기본으로	-14194
▁발견하고	-14195
▁주어진다	-14196
쉽게	-14197
▁난을	-14198
▁에밀	-14199
▁포식	-14200
▁블루스	-14201
▁소나타	-14202
▁신화의	-14203
▁판매를	-14204
▁퍼포먼	-14205
▁쉐	-14206
업의	-14207
태를	-14208
티넘	-14209
폭탄	-14210
▁74	-14211
▁관악	-14212
▁상부	-14213
▁크롬	-14214
하기가	-14215
▁권위를	-14216
▁논쟁이	-14217
▁원나라	-14218
▁혼란을	-14219
▁운영되고	-14220
▁핀란드의	-14221
▁커뮤니케이션	-14222
산동	-14223
▁년간	-14224
▁여운	-14225
▁천재	-14226
▁동등한	-14227
▁사건과	-14228
▁상처를	-14229
문화유산	-14230
광을	-14231
▁중퇴	-14232
났지만	-14233
▁관직에	-14234
▁양식의	-14235
▁죽음에	-14236
▁김씨	-14237
▁우드	-14238
▁과도한	-14239
▁현상은	-14240
▁카를로스	-14241
▁후지와라노	-14242
암의	-14243
▁공표	-14244
▁땄다	-14245
▁치세	-14246
▁콘솔	-14247
▁시간의	-14248
▁제도에	-14249
▁조정의	-14250
▁콰	-14251
더가	-14252
리야	-14253
애틀	-14254
▁전복	-14255
▁키가	-14256
▁협조	-14257
▁검사를	-14258
▁게이지	-14259
▁사랑의	-14260
▁영역에	-14261
▁우려가	-14262
▁헌법을	-14263
업체	-14264
▁원조	-14265
▁쾌속	-14266
▁투르	-14267
만명의	-14268
▁생성된	-14269
▁내부에서	-14270
▁이적하여	-14271
▁씨의	-14272
▁패전	-14273
▁서식지	-14274
어족	-14275
히트	-14276
▁김현	-14277
▁몰수	-14278
▁유벤	-14279
▁입양	-14280
▁춤을	-14281
▁코코	-14282
화하기	-14283
▁다카라	-14284
▁도입한	-14285
▁무렵에	-14286
▁스타리그	-14287
▁점령했다	-14288
홀름	-14289
▁교양	-14290
▁김창	-14291
▁주입	-14292
▁즐길	-14293
▁증대	-14294
사단은	-14295
▁대화를	-14296
▁동영상	-14297
▁명확한	-14298
▁생산된	-14299
▁혐의를	-14300
▁관해서는	-14301
는가	-14302
▁저하	-14303
▁죽인	-14304
▁치고	-14305
▁김정은	-14306
▁레슬링	-14307
▁작성한	-14308
▁마오쩌둥	-14309
시한	-14310
영어	-14311
티시	-14312
파리	-14313
▁문인	-14314
▁오류	-14315
▁이소	-14316
하게도	-14317
▁가상의	-14318
▁높이가	-14319
▁동메달	-14320
▁세금을	-14321
▁애비뉴	-14322
▁음반에	-14323
▁장면이	-14324
▁그레이트	-14325
▁노선이다	-14326
▁쿠빌라이	-14327
▁전국적으로	-14328
▁프로젝트의	-14329
공화	-14330
다를	-14331
바람	-14332
▁86	-14333
▁명은	-14334
▁소나무	-14335
▁엘리트	-14336
▁여지가	-14337
▁스타일을	-14338
오나	-14339
천면	-14340
▁간선	-14341
▁내어	-14342
▁오크	-14343
▁유동	-14344
▁특집	-14345
▁헌신	-14346
명에서	-14347
▁간신히	-14348
▁경쟁을	-14349
▁수용할	-14350
끄러	-14351
▁IM	-14352
▁지평	-14353
심으로	-14354
호선은	-14355
▁바다에	-14356
▁일하고	-14357
▁카탈루냐	-14358
▁한편으로	-14359
▁공과	-14360
▁느린	-14361
▁미만	-14362
▁어뢰	-14363
▁의결	-14364
▁의문	-14365
학적인	-14366
▁백제의	-14367
▁불안정	-14368
▁손해배	-14369
▁협정을	-14370
▁황제는	-14371
▁단독으로	-14372
▁설명하고	-14373
술은	-14374
시카	-14375
▁딸이다	-14376
▁약속을	-14377
▁이란의	-14378
덴부르크	-14379
▁선수들은	-14380
▁아랍에미	-14381
▁광범위하게	-14382
▁더불어민주	-14383
리던	-14384
시청	-14385
▁데서	-14386
▁세조	-14387
자라는	-14388
전이다	-14389
▁붙였다	-14390
▁전통적	-14391
▁내용이다	-14392
▁도시철도	-14393
▁부족으로	-14394
▁에너지가	-14395
▁킥	-14396
▁강희	-14397
▁당원	-14398
▁수령	-14399
스카야	-14400
어머니	-14401
▁갈리아	-14402
▁소유한	-14403
▁변경했다	-14404
것을	-14405
웠던	-14406
▁티켓	-14407
▁당국은	-14408
▁도시인	-14409
▁지원하고	-14410
▁출전하지	-14411
철이	-14412
코를	-14413
▁?)	-14414
▁PS	-14415
▁경연	-14416
▁김홍	-14417
▁대행	-14418
▁세기	-14419
▁총장	-14420
▁품질	-14421
▁개인적	-14422
▁마스크	-14423
▁언론에	-14424
▁세종특별자치	-14425
빌딩	-14426
사한	-14427
▁예하	-14428
▁파기	-14429
▁하반	-14430
▁센고쿠	-14431
▁작업은	-14432
▁젊은이	-14433
▁주위를	-14434
서원	-14435
▁다툼	-14436
▁보라	-14437
▁부각	-14438
▁이차	-14439
▁포드	-14440
▁한해	-14441
▁반도체	-14442
▁받아들였다	-14443
▁국가대표팀에	-14444
과가	-14445
▁CN	-14446
▁돌로	-14447
▁아야	-14448
▁조류	-14449
▁조승	-14450
▁해군은	-14451
▁효과는	-14452
▁부르고뉴	-14453
▁스크린도	-14454
▁판매하는	-14455
▁도네	-14456
▁정유	-14457
일이다	-14458
▁도로가	-14459
▁노선으로	-14460
나시	-14461
치노	-14462
타스	-14463
▁이장	-14464
▁체크	-14465
쪽에는	-14466
▁수학적	-14467
▁수행했다	-14468
▁작품에서	-14469
▁낫	-14470
안과	-14471
코타	-14472
▁81	-14473
▁벌여	-14474
▁아벨	-14475
▁명확히	-14476
▁여겼다	-14477
섬과	-14478
월호	-14479
제학	-14480
▁겹쳐	-14481
▁지출	-14482
▁대표가	-14483
▁리그로	-14484
▁무리를	-14485
▁방향에	-14486
▁힘으로	-14487
풀이	-14488
ire	-14489
▁리보	-14490
▁종을	-14491
브리아	-14492
▁교통의	-14493
▁국민당	-14494
▁철도는	-14495
▁평론가	-14496
부리	-14497
협의	-14498
▁배속	-14499
▁타자	-14500
▁대대로	-14501
▁되도록	-14502
▁반응은	-14503
트레	-14504
형인	-14505
▁양주	-14506
▁온건	-14507
▁황해	-14508
티미터	-14509
▁쓰여진	-14510
▁열심히	-14511
▁직위를	-14512
▁크레이	-14513
▁회원국	-14514
▁알렉산드르	-14515
▁임명하였다	-14516
▁경에	-14517
▁그저	-14518
▁무작	-14519
▁자생	-14520
▁사이토	-14521
▁조성된	-14522
Ar	-14523
미래	-14524
인산	-14525
정상	-14526
체계	-14527
▁기인	-14528
▁목성	-14529
▁부유	-14530
▁카나	-14531
▁후한	-14532
도마뱀	-14533
▁그렸다	-14534
▁수도로	-14535
▁싣	-14536
업과	-14537
▁방치	-14538
▁이겨	-14539
▁주도한	-14540
▁엇	-14541
그림	-14542
린과	-14543
벌을	-14544
포와	-14545
▁노란	-14546
▁맥도	-14547
▁오노	-14548
당하여	-14549
▁사라진	-14550
▁기여하였다	-14551
▁사이타마현	-14552
▁아일랜드의	-14553
▁구와	-14554
▁김옥	-14555
▁미세	-14556
▁데스크	-14557
▁철학적	-14558
▁감독이다	-14559
▁프로그램으로	-14560
러브	-14561
절의	-14562
▁2)	-14563
▁국한	-14564
▁풍자	-14565
제도를	-14566
▁구하는	-14567
▁남쪽은	-14568
▁병원에	-14569
▁아미타	-14570
▁전투의	-14571
▁지키기	-14572
▁플레이어가	-14573
선발	-14574
▁넷째	-14575
▁러셀	-14576
▁모셔	-14577
▁바나	-14578
▁해저	-14579
▁마다가	-14580
▁마리의	-14581
▁정도에	-14582
▁전국동시지방선거의	-14583
유지	-14584
▁무지	-14585
섬에서	-14586
▁건축가	-14587
▁밖에서	-14588
▁버전을	-14589
▁들어오는	-14590
엔터테인먼	-14591
▁다이아몬드	-14592
朝鮮	-14593
▁입구	-14594
▁전래	-14595
시간이	-14596
▁고대의	-14597
▁규정을	-14598
▁서쪽은	-14599
▁활동하다가	-14600
▁기기	-14601
▁벽돌	-14602
▁별이	-14603
▁출가	-14604
▁하트	-14605
위원회에	-14606
▁위원회는	-14607
▁다름	-14608
▁이렇	-14609
▁한스	-14610
로이드	-14611
▁가리지	-14612
▁활동하던	-14613
세다	-14614
암은	-14615
ary	-14616
▁날이	-14617
▁매체	-14618
▁보복	-14619
▁바꾸고	-14620
▁헤르체고	-14621
날레	-14622
▁탄도	-14623
▁다케다	-14624
▁프란체	-14625
▁고등교육	-14626
▁주민들의	-14627
▁해체되었다	-14628
▁단식	-14629
▁아바	-14630
▁했었다	-14631
더를	-14632
두의	-14633
무는	-14634
사실	-14635
▁강간	-14636
▁바에	-14637
▁팀과	-14638
▁IBM	-14639
▁손실을	-14640
▁에디션	-14641
▁사용되어	-14642
▁일어나지	-14643
▁하였지만	-14644
레드	-14645
▁회화	-14646
월에서	-14647
테리아	-14648
▁세이부	-14649
▁바르샤바	-14650
▁의회에서	-14651
브스	-14652
▁결별	-14653
▁면제	-14654
▁휩쓸	-14655
루스의	-14656
▁900	-14657
▁and	-14658
▁규모를	-14659
▁스테이	-14660
▁지키고	-14661
천년	-14662
통은	-14663
▁가네	-14664
▁동인	-14665
▁성이	-14666
▁회로	-14667
교에서	-14668
부리그	-14669
사들은	-14670
전에는	-14671
해지자	-14672
▁암호화	-14673
▁축구를	-14674
▁니가타현	-14675
)&	-14676
MC	-14677
▁냈	-14678
▁으	-14679
러를	-14680
캐슬	-14681
타우	-14682
▁82	-14683
▁리오	-14684
▁지바현	-14685
▁공격하는	-14686
▁대응하는	-14687
▁레스토랑	-14688
Th	-14689
▁낚	-14690
독한	-14691
▁굵은	-14692
▁김구	-14693
▁다투	-14694
▁바꿀	-14695
▁부총	-14696
티아의	-14697
▁친구인	-14698
▁작용하는	-14699
▁로그	-14700
▁중등	-14701
대통령	-14702
치에서	-14703
▁가을에	-14704
▁기술적	-14705
▁부모의	-14706
▁않다고	-14707
▁아이치현	-14708
▁출발하여	-14709
▁독립적으로	-14710
▁중화민국의	-14711
▁지역구의원	-14712
▁비례대표의원	-14713
발사	-14714
▁84	-14715
▁고인	-14716
▁보드	-14717
들처럼	-14718
회의를	-14719
▁그보다	-14720
▁동부에	-14721
▁맨해튼	-14722
▁클레멘	-14723
▁시즌부터	-14724
▁오케스트	-14725
▁가맹	-14726
▁식당	-14727
▁씨앗	-14728
▁출석	-14729
▁대중의	-14730
▁수준을	-14731
▁아돌프	-14732
▁장소에	-14733
▁무대에서	-14734
▁이번에는	-14735
▁코무네다	-14736
상업	-14737
재위	-14738
축을	-14739
ite	-14740
▁화를	-14741
스터의	-14742
▁한국과	-14743
거리에서	-14744
▁활발하게	-14745
▁튼	-14746
▁가신	-14747
▁결선	-14748
▁원격	-14749
▁합친	-14750
났는데	-14751
▁모른다	-14752
▁의문을	-14753
▁그녀에게	-14754
▁영향력이	-14755
▁취항	-14756
▁카사	-14757
▁애리조	-14758
▁자원을	-14759
▁남북으로	-14760
▁아날로그	-14761
▁지배하는	-14762
▁천문학자	-14763
▁클라우드	-14764
▁방송되었던	-14765
위성	-14766
▁맞춘	-14767
▁사바	-14768
▁승점	-14769
▁힘썼	-14770
하겠다	-14771
▁3·1	-14772
▁대기업	-14773
▁동쪽은	-14774
▁1889	-14775
▁올랐으며	-14776
▁사용되기도	-14777
▁정치적으로	-14778
▁codice	-14779
▁틸	-14780
강한	-14781
바퀴	-14782
발은	-14783
▁것의	-14784
▁공수	-14785
▁예는	-14786
▁콜라	-14787
▁히사	-14788
오늘날	-14789
자라고	-14790
▁다이어	-14791
▁참가할	-14792
▁100%	-14793
▁여겨지는	-14794
▁이용된다	-14795
▁북아일랜드	-14796
호텔	-14797
▁수락	-14798
▁아이폰	-14799
▁방면으로	-14800
▁영역에서	-14801
▁옥스퍼드	-14802
ld	-14803
▁1)	-14804
▁고사	-14805
▁메릴	-14806
▁형인	-14807
▁당하고	-14808
▁트로이	-14809
▁표현이	-14810
법상	-14811
▁살게	-14812
▁이득	-14813
▁존슨	-14814
년경에	-14815
터에서	-14816
▁나라에	-14817
▁낳는다	-14818
▁않아도	-14819
▁열매는	-14820
▁지휘를	-14821
개국에서	-14822
▁선거결과를	-14823
▁케임브리지	-14824
▁군부	-14825
▁궁정	-14826
▁내걸	-14827
▁당주	-14828
▁매력	-14829
▁모색	-14830
▁불분	-14831
▁상표	-14832
▁왼손	-14833
▁최연소	-14834
Co	-14835
age	-14836
▁허리	-14837
▁경제를	-14838
▁달라고	-14839
▁인공지능	-14840
▁미드필더로	-14841
▁서원	-14842
▁아유	-14843
▁채취	-14844
▁후세	-14845
▁것이나	-14846
▁목적이	-14847
▁공개했다	-14848
▁늘어났다	-14849
▁일렉트로	-14850
▁공존	-14851
▁동문	-14852
▁야외	-14853
▁위헌	-14854
▁인과	-14855
▁생긴다	-14856
▁파이터	-14857
▁나타나지	-14858
▁캐릭터를	-14859
▁만들어진다	-14860
▁스트라이커	-14861
▁한편으로는	-14862
도스	-14863
셨다	-14864
종에	-14865
▁구형	-14866
▁마닐	-14867
▁연수	-14868
▁정작	-14869
▁중생	-14870
조에서	-14871
▁들어갔	-14872
▁원칙을	-14873
▁전당에	-14874
▁전략적	-14875
▁주머니	-14876
▁출연하여	-14877
련된	-14878
부상	-14879
히데	-14880
▁CJ	-14881
▁101	-14882
▁70%	-14883
▁뉴욕주	-14884
▁전국의	-14885
▁표현할	-14886
박물관에	-14887
님은	-14888
▁공신	-14889
▁최성	-14890
능력을	-14891
▁(""	-14892
▁강조하는	-14893
▁중심지로	-14894
▁수여받았다	-14895
)(	-14896
MP	-14897
▁룰	-14898
령과	-14899
심과	-14900
유사	-14901
집의	-14902
▁고원	-14903
▁되던	-14904
▁문신	-14905
▁집어	-14906
▁천천	-14907
바이트	-14908
▁그래프	-14909
▁문화에	-14910
▁정책의	-14911
▁평안남도	-14912
▁평안북도	-14913
추진	-14914
▁가도	-14915
▁명사	-14916
▁바흐	-14917
▁음향	-14918
▁짓는	-14919
▁파나	-14920
▁느끼고	-14921
▁보낸다	-14922
▁아이가	-14923
▁장르의	-14924
▁정치가	-14925
과정에서	-14926
▁이를테면	-14927
▁국가대표로	-14928
묘한	-14929
토록	-14930
통상	-14931
▁공감	-14932
▁자산	-14933
▁나타날	-14934
▁마르코	-14935
▁기념하여	-14936
쿠르	-14937
▁간첩	-14938
▁워크	-14939
▁제정된	-14940
▁조직은	-14941
▁보호하는	-14942
▁운행하고	-14943
▁공개적으로	-14944
나로	-14945
직은	-14946
▁부도	-14947
▁차출	-14948
레이크	-14949
▁내각의	-14950
▁어렵게	-14951
▁개통되었다	-14952
에의	-14953
▁개원	-14954
▁박람	-14955
▁볼프	-14956
▁비엔	-14957
▁추서	-14958
지느러	-14959
▁정의는	-14960
▁패배한	-14961
검은	-14962
전인	-14963
▁가오	-14964
▁고토	-14965
▁봉기	-14966
▁타구	-14967
▁40%	-14968
▁왕실의	-14969
▁지원하기	-14970
복음	-14971
▁니코	-14972
▁딸이	-14973
▁목재	-14974
▁보리	-14975
▁부합	-14976
▁유목	-14977
▁차체	-14978
▁교회가	-14979
▁기업인	-14980
직할	-14981
▁서민	-14982
▁좌석	-14983
▁조약이	-14984
링턴	-14985
창의	-14986
▁입지	-14987
▁놀라운	-14988
▁음반이	-14989
▁일본국	-14990
▁정의를	-14991
했음에도	-14992
▁관련되어	-14993
▁애틀랜타	-14994
FL	-14995
전달	-14996
▁늑대	-14997
▁대북	-14998
▁원숭	-14999
▁질문	-15000
각형의	-15001
론으로	-15002
▁전쟁과	-15003
▁여겨지고	-15004
uc	-15005
카오	-15006
▁대출	-15007
▁터치	-15008
▁기관총	-15009
▁제품의	-15010
▁지난날	-15011
▁프랜차	-15012
▁건물이다	-15013
▁인디애나	-15014
법률	-15015
▁이완	-15016
레이트	-15017
선거구	-15018
스키의	-15019
연으로	-15020
▁서울로	-15021
▁의지를	-15022
▁담당한다	-15023
▁러시아와	-15024
▁안정적인	-15025
▁독립운동가	-15026
장로	-15027
▁래퍼	-15028
▁루시	-15029
▁지장	-15030
▁해가	-15031
회사로	-15032
▁이동하는	-15033
▁소프트웨어를	-15034
▁모자	-15035
▁장제	-15036
▁춘추	-15037
메이지	-15038
▁당대의	-15039
▁의석을	-15040
▁자란다	-15041
▁천황이	-15042
▁그룹으로	-15043
▁되어있다	-15044
▁따라서는	-15045
치히	-15046
▁데스	-15047
▁학원	-15048
▁남았다	-15049
▁증거는	-15050
▁해안에	-15051
AT	-15052
누마	-15053
스기	-15054
해석	-15055
▁89	-15056
▁좌측	-15057
▁통용	-15058
▁후배	-15059
▁시장이	-15060
▁초창기	-15061
▁국내에서	-15062
▁연고지로	-15063
▁전반적으로	-15064
미트	-15065
▁느낄	-15066
▁순조	-15067
▁지쿠	-15068
▁체인	-15069
이러한	-15070
▁안티오	-15071
▁유학생	-15072
▁주위의	-15073
받았으며	-15074
▁결합하여	-15075
▁대항하여	-15076
az	-15077
영국	-15078
철학	-15079
▁루카	-15080
▁느끼는	-15081
▁바뀌어	-15082
▁서재필	-15083
▁이름과	-15084
▁시리즈에	-15085
▁일부이다	-15086
격의	-15087
▁광학	-15088
▁요충	-15089
▁이방	-15090
▁직통	-15091
▁독일인	-15092
▁전화를	-15093
▁증상을	-15094
▁시작하고	-15095
▁아틀레티코	-15096
알라	-15097
채는	-15098
-14	-15099
ory	-15100
▁로버	-15101
▁리베	-15102
▁산지	-15103
▁잠정	-15104
▁전이	-15105
마스터	-15106
▁가져다	-15107
▁무역을	-15108
▁웨스턴	-15109
▁호르몬	-15110
▁경기도의	-15111
▁다양하게	-15112
▁못했지만	-15113
▁적용된다	-15114
▁탈락했다	-15115
편은	-15116
▁마가	-15117
▁산둥	-15118
▁상공	-15119
▁아산	-15120
▁자란	-15121
원숭이	-15122
▁불확실	-15123
▁수록곡	-15124
▁플래티넘	-15125
카쓰	-15126
▁봄에	-15127
▁워터	-15128
▁징병	-15129
대회를	-15130
헝가리	-15131
▁영업을	-15132
창군	-15133
▁NC	-15134
▁국적	-15135
블랜드	-15136
▁시에서	-15137
▁베네수엘라	-15138
독을	-15139
비용	-15140
▁동학	-15141
▁듣지	-15142
▁서적	-15143
▁어찌	-15144
▁전격	-15145
▁취업	-15146
상규명	-15147
▁몽골의	-15148
▁보고서	-15149
▁서로의	-15150
▁십자군	-15151
▁연합의	-15152
국사	-15153
근을	-15154
먼드	-15155
유예	-15156
▁87	-15157
▁부시	-15158
▁스칸	-15159
▁연인	-15160
▁적어	-15161
나에서	-15162
예정자	-15163
▁그래도	-15164
▁양자로	-15165
자르	-15166
▁조광	-15167
▁끼쳤다	-15168
▁시애틀	-15169
▁음악과	-15170
▁이상한	-15171
▁문화체육	-15172
▁전까지는	-15173
▁최대풍속	-15174
▁헥	-15175
▁곡선	-15176
▁사탕	-15177
▁자민	-15178
▁전무	-15179
▁중엽	-15180
▁찬양	-15181
▁남동생	-15182
▁순으로	-15183
▁제공했다	-15184
▁천연기념	-15185
▁원의	-15186
▁주조	-15187
▁방안을	-15188
▁비롯된	-15189
▁처분을	-15190
▁것이므로	-15191
노와	-15192
▁EU	-15193
▁애칭	-15194
▁존스	-15195
▁CEO	-15196
▁공로를	-15197
▁사이로	-15198
EP	-15199
▁쾰	-15200
大夫	-15201
증에	-15202
▁때려	-15203
▁명인	-15204
▁북위	-15205
▁일간	-15206
▁첨단	-15207
▁폐렴	-15208
▁휴식	-15209
관계에	-15210
▁가족이	-15211
▁북쪽은	-15212
▁이주한	-15213
▁친구가	-15214
▁푸에르	-15215
▁결승전에	-15216
워서	-15217
▁4.	-15218
▁공이	-15219
▁신형	-15220
▁이천	-15221
▁조형	-15222
▁혼동	-15223
▁논쟁을	-15224
▁모시고	-15225
▁시에는	-15226
▁만들었고	-15227
▁방송되는	-15228
▁차지했고	-15229
▁함경남도	-15230
▁진행하였다	-15231
기둥	-15232
복의	-15233
지오	-15234
▁콜린	-15235
▁GDP	-15236
▁노선에	-15237
▁위에는	-15238
▁이기고	-15239
▁용어이다	-15240
당할	-15241
▁단체의	-15242
▁스포르	-15243
▁식물의	-15244
▁알래스카	-15245
레우	-15246
물인	-15247
요를	-15248
▁남미	-15249
▁델라	-15250
▁압둘	-15251
▁접한	-15252
▁제퍼	-15253
▁코소	-15254
▁트렌	-15255
▁현직	-15256
되어서	-15257
▁넘어서	-15258
▁도널드	-15259
▁전신인	-15260
▁헬리콥	-15261
AL	-15262
▁쥬	-15263
보도	-15264
쓰마	-15265
▁71	-15266
▁유력한	-15267
▁작성된	-15268
▁찬사를	-15269
궁을	-15270
ann	-15271
▁리옹	-15272
▁상급	-15273
지거나	-15274
차례의	-15275
▁면적의	-15276
▁비율로	-15277
▁수업을	-15278
▁사용자의	-15279
▁입학하여	-15280
▁후반부터	-15281
▁선수단이다	-15282
가게	-15283
의학	-15284
▁보성	-15285
도서관	-15286
▁1-2	-15287
▁산업은	-15288
▁밝혀지지	-15289
▁활동하며	-15290
터키	-15291
ica	-15292
▁산성	-15293
▁컸다	-15294
▁다리가	-15295
▁생겨난	-15296
▁헤이안	-15297
▁1848	-15298
▁도쿄에서	-15299
▁안토니오	-15300
▁정치인으로	-15301
iss	-15302
▁입주	-15303
▁파인	-15304
▁생명을	-15305
국제공항	-15306
▁빔	-15307
테는	-15308
▁돌격	-15309
▁빌라	-15310
▁샌드	-15311
▁쪽에	-15312
▁찍은	-15313
당한다	-15314
▁각지의	-15315
▁견해가	-15316
▁규칙을	-15317
▁불과하다	-15318
니코	-15319
되나	-15320
림은	-15321
▁갖지	-15322
▁번영	-15323
▁사리	-15324
▁점과	-15325
▁철폐	-15326
▁코카	-15327
▁클러	-15328
▁수사를	-15329
▁정상에	-15330
▁효율적으로	-15331
▁찢	-15332
메다	-15333
시경	-15334
자금	-15335
작인	-15336
▁대마	-15337
▁배수	-15338
▁이산	-15339
▁작전에	-15340
▁흐르고	-15341
여자고등학교	-15342
정권	-15343
크트	-15344
ith	-15345
▁거두며	-15346
▁트럼프	-15347
▁영화에서	-15348
섬을	-15349
준을	-15350
▁고쿠	-15351
▁대영	-15352
▁루키	-15353
▁스노	-15354
▁주자	-15355
물리학	-15356
부분에	-15357
순위로	-15358
였다는	-15359
▁정당은	-15360
▁프로레	-15361
▁흩어져	-15362
▁관할했다	-15363
▁대항하는	-15364
▁타이틀곡	-15365
▁겪은	-15366
▁공방	-15367
▁많지	-15368
▁모차	-15369
▁심지	-15370
▁아프	-15371
▁고문을	-15372
▁단계를	-15373
▁생활에	-15374
▁이론이	-15375
국대학교	-15376
▁있어서의	-15377
▁선임되었다	-15378
놀이	-15379
중추	-15380
▁내리고	-15381
▁따왔다	-15382
▁활동의	-15383
대군	-15384
드릭	-15385
소비	-15386
▁공백	-15387
▁비영	-15388
▁상수	-15389
▁준수	-15390
케라톱	-15391
▁사카이	-15392
▁서부에	-15393
▁정하는	-15394
▁조직에	-15395
▁계속되는	-15396
바가	-15397
어스	-15398
절에	-15399
한은	-15400
▁간략	-15401
▁김지	-15402
▁동네	-15403
▁방콕	-15404
▁실버	-15405
▁선수의	-15406
▁영국령	-15407
▁업그레이드	-15408
▁활동했으며	-15409
감의	-15410
int	-15411
▁노면	-15412
▁도래	-15413
▁장을	-15414
만원을	-15415
▁방식에	-15416
▁아폴로	-15417
▁클럽의	-15418
▁기간동안	-15419
▁일으킨다	-15420
▁격추	-15421
▁누이	-15422
▁모른	-15423
▁선동	-15424
▁이다	-15425
포켓몬	-15426
▁동대문	-15427
▁토스카	-15428
▁증가하는	-15429
승의	-15430
통치	-15431
히지	-15432
▁기고	-15433
▁나를	-15434
▁알프	-15435
▁오락	-15436
▁우정	-15437
▁의석	-15438
▁피할	-15439
▁행진	-15440
▁드디어	-15441
▁극장에서	-15442
▁늙	-15443
진군	-15444
▁92	-15445
▁Th	-15446
▁극우	-15447
▁떠오	-15448
르트의	-15449
▁고양시	-15450
▁부대의	-15451
▁인테르	-15452
▁후기에	-15453
▁현장에서	-15454
▁후계자로	-15455
AI	-15456
년제	-15457
렉션	-15458
▁AS	-15459
▁격투	-15460
▁데카	-15461
▁메뉴	-15462
▁성에	-15463
▁전전	-15464
▁점수	-15465
▁죽게	-15466
▁천거	-15467
▁성향을	-15468
▁오클랜드	-15469
▁수록예정자	-15470
황의	-15471
▁듀얼	-15472
▁이병	-15473
▁은퇴하였다	-15474
▁다비	-15475
▁차로	-15476
▁켈트	-15477
▁받았던	-15478
▁새끼를	-15479
▁안정된	-15480
▁위치가	-15481
▁다카라즈카	-15482
DS	-15483
관인	-15484
막이	-15485
지정	-15486
▁79	-15487
▁강대	-15488
▁부에	-15489
▁분지	-15490
▁요동	-15491
▁유비	-15492
▁인명	-15493
▁350	-15494
▁단계에	-15495
▁단어가	-15496
▁세군다	-15497
▁천천히	-15498
▁행하는	-15499
▁화학적	-15500
▁지명되었다	-15501
▁크리스토퍼	-15502
루아	-15503
척을	-15504
▁개항	-15505
▁영장	-15506
▁토끼	-15507
화되고	-15508
▁공항은	-15509
▁정보는	-15510
▁설립하여	-15511
요의	-15512
▁언니	-15513
▁이모	-15514
▁일기	-15515
▁접수	-15516
▁구하기	-15517
▁너무나	-15518
개인	-15519
사유	-15520
▁EC	-15521
▁강동	-15522
▁검거	-15523
▁면이	-15524
▁보증	-15525
▁상행	-15526
▁체르	-15527
가능한	-15528
▁미군의	-15529
▁어워드	-15530
UN	-15531
천이	-15532
▁집회	-15533
▁해부	-15534
청에서	-15535
▁감염된	-15536
▁감옥에	-15537
타고	-15538
퓨팅	-15539
▁묶어	-15540
▁음모	-15541
▁항목	-15542
▁긴테쓰	-15543
▁필리프	-15544
▁성장했다	-15545
▁클리블랜드	-15546
▁도출	-15547
▁바꿨	-15548
▁보석	-15549
▁헬싱	-15550
▁여객철도의	-15551
AS	-15552
인칭	-15553
▁BC	-15554
▁광명	-15555
▁데모	-15556
▁태백	-15557
▁휘말	-15558
저기압	-15559
▁근거가	-15560
▁난카이	-15561
▁음악이	-15562
▁1882	-15563
▁옮겨졌다	-15564
▁주인공으로	-15565
배가	-15566
▁모나	-15567
▁싶다	-15568
경찰서	-15569
▁게릴라	-15570
▁대단히	-15571
▁명령에	-15572
▁근본적인	-15573
▁일본군의	-15574
방과	-15575
와도	-15576
하겐	-15577
▁리만	-15578
▁삼중	-15579
▁분야를	-15580
▁브리튼	-15581
▁유래했다	-15582
▁독자적으로	-15583
구멍	-15584
남부	-15585
아니	-15586
암이	-15587
정지	-15588
ach	-15589
▁나갔	-15590
▁자결	-15591
▁주니	-15592
▁1600	-15593
▁1883	-15594
▁개발했다	-15595
▁비판하는	-15596
▁이바라키	-15597
오에	-15598
▁살라	-15599
▁총을	-15600
▁하동	-15601
▁한명	-15602
▁구역은	-15603
▁독일군	-15604
▁못했던	-15605
▁빠졌다	-15606
▁원정을	-15607
▁지시를	-15608
▁투자를	-15609
이었다는	-15610
하더라도	-15611
▁이시카와	-15612
히게	-15613
▁대부	-15614
▁돕는	-15615
▁병이	-15616
▁암석	-15617
▁음원	-15618
▁사실에	-15619
▁아레나	-15620
▁측에서	-15621
▁터키의	-15622
▁한국을	-15623
위원회에서	-15624
▁스크린도어가	-15625
보스	-15626
야스	-15627
▁Ar	-15628
▁군산	-15629
▁면이다	-15630
▁서대문	-15631
▁왕국이	-15632
▁스타일의	-15633
기갑	-15634
믹스	-15635
포에	-15636
▁생겼	-15637
▁솟아	-15638
▁했기	-15639
▁단계로	-15640
▁마을은	-15641
▁서로를	-15642
▁시코쿠	-15643
▁참석한	-15644
▁해당되는	-15645
sp	-15646
기며	-15647
색과	-15648
초로	-15649
틴은	-15650
합을	-15651
▁조세	-15652
▁미토콘	-15653
▁왕가의	-15654
▁방지하기	-15655
▁캉	-15656
▁이회	-15657
족으로	-15658
▁밀도가	-15659
▁소설가	-15660
▁카메룬	-15661
▁헬레	-15662
▁가이드	-15663
▁대표를	-15664
▁세우는	-15665
▁개헌	-15666
▁도피	-15667
▁세습	-15668
▁목성의	-15669
▁미주리	-15670
강전에서	-15671
권에서는	-15672
▁연극배우	-15673
▁찔	-15674
기타	-15675
보장	-15676
약의	-15677
▁다윈	-15678
▁대니	-15679
▁라그	-15680
▁랴오	-15681
▁오로	-15682
▁축조	-15683
▁신앙을	-15684
▁경기장으로	-15685
무의	-15686
▁김제	-15687
▁노인	-15688
▁다마	-15689
▁전담	-15690
브리엘	-15691
▁기준이	-15692
▁북동부	-15693
▁스트레	-15694
▁프랑스를	-15695
▁슬픔	-15696
▁몬스터	-15697
▁없었으며	-15698
▁치명적인	-15699
▁쿠데타를	-15700
▁출판되었다	-15701
▁서울특별시의	-15702
▁경복	-15703
▁너머	-15704
▁놓인	-15705
▁무언	-15706
▁선행	-15707
▁칼럼	-15708
▁노래가	-15709
▁생전에	-15710
▁포함되지	-15711
▁프랑스로	-15712
▁현대적인	-15713
▁세인트루이스	-15714
:0	-15715
증과	-15716
활성	-15717
▁노이	-15718
▁잃게	-15719
고에서	-15720
▁상업적	-15721
▁신화에	-15722
▁해병대	-15723
▁1868	-15724
▁받았는데	-15725
▁사무실은	-15726
▁아인슈타	-15727
달의	-15728
▁옮긴	-15729
▁혼성	-15730
적이라고	-15731
▁만들어져	-15732
▁붙여졌다	-15733
▁이용해서	-15734
▁프랑스령	-15735
-9	-15736
교사	-15737
리니	-15738
세력	-15739
▁국외	-15740
▁김병	-15741
개국이	-15742
▁알파벳	-15743
▁흐른다	-15744
de	-15745
유도	-15746
▁비대	-15747
▁빌바	-15748
▁펑크	-15749
왕으로	-15750
컴퓨터	-15751
▁마라톤	-15752
▁비정상	-15753
▁암컷은	-15754
▁국무총리	-15755
▁이해하는	-15756
▁전적으로	-15757
▁요구하였다	-15758
보리	-15759
산리	-15760
테의	-15761
▁낮다	-15762
▁정전	-15763
▁타지	-15764
▁고유한	-15765
▁모르고	-15766
▁소재의	-15767
▁인간과	-15768
▁명령했다	-15769
▁성곽	-15770
▁스텔	-15771
연대는	-15772
▁겉보기	-15773
▁급격한	-15774
▁대전의	-15775
▁원리를	-15776
남에	-15777
예수	-15778
▁돕기	-15779
▁소외	-15780
▁조국	-15781
▁필드	-15782
그룹의	-15783
▁않다는	-15784
▁비교하여	-15785
▁흠	-15786
미나	-15787
ies	-15788
▁동등	-15789
▁예고	-15790
▁토크	-15791
년도에	-15792
쪽에서	-15793
▁되어야	-15794
▁주제에	-15795
▁행동이	-15796
▁애리조나	-15797
▁아이디어를	-15798
,0	-15799
극을	-15800
기본	-15801
죄로	-15802
ence	-15803
▁저항을	-15804
▁공화국이	-15805
▁아프리카의	-15806
▁유료	-15807
▁적게	-15808
데이터	-15809
▁(18	-15810
▁가라앉	-15811
▁곳곳에	-15812
▁매카트	-15813
▁반도의	-15814
▁오른손	-15815
▁정당이	-15816
▁총리로	-15817
▁진출한다	-15818
▁경희	-15819
▁광양	-15820
▁기해	-15821
▁시부	-15822
▁전수	-15823
▁패럴	-15824
▁국적을	-15825
▁삼각형	-15826
▁자기가	-15827
▁체계는	-15828
▁날카로운	-15829
▁어머니와	-15830
▁영국으로	-15831
▁대한민국을	-15832
▁캐나다에서	-15833
온을	-15834
ver	-15835
▁노조	-15836
▁습윤	-15837
▁탄자	-15838
▁노르망	-15839
▁말기의	-15840
▁배터리	-15841
▁크라이	-15842
▁태국의	-15843
▁패했다	-15844
▁밴드이다	-15845
▁언급하였다	-15846
간은	-15847
모스	-15848
지부	-15849
토로	-15850
▁고다	-15851
▁과장	-15852
▁우아	-15853
류이다	-15854
▁여성은	-15855
▁전달하는	-15856
▁주전으로	-15857
▁키프로스	-15858
▁설계되었다	-15859
▁갚	-15860
금과	-15861
링겐	-15862
▁섬은	-15863
▁말미암	-15864
▁보이게	-15865
▁둘러싸인	-15866
▁실시하는	-15867
▁완벽하게	-15868
▁설치하였다	-15869
다만	-15870
득점	-15871
재산	-15872
티드	-15873
으려는	-15874
▁레드삭	-15875
▁보내어	-15876
▁전자의	-15877
▁행성이	-15878
▁것이지만	-15879
▁물리치고	-15880
▁아이들을	-15881
▁챙	-15882
길에	-15883
록을	-15884
테른	-15885
품은	-15886
▁격려	-15887
▁공고	-15888
▁마천루	-15889
▁엔진이	-15890
▁영원히	-15891
▁요구에	-15892
▁적었다	-15893
▁홍문관	-15894
▁흥미를	-15895
▁박사학위를	-15896
▁코스타리카	-15897
ax	-15898
▁미상	-15899
▁실무	-15900
▁앞선	-15901
▁열을	-15902
▁기타를	-15903
▁시신은	-15904
▁제한을	-15905
들이었다	-15906
▁6.25	-15907
▁중요하게	-15908
집은	-15909
att	-15910
ier	-15911
▁나갈	-15912
▁다듬	-15913
▁동정	-15914
▁치즈	-15915
▁KIA	-15916
▁병력이	-15917
▁연이어	-15918
▁자유형	-15919
▁클럽인	-15920
▁명확하게	-15921
▁스코틀랜드의	-15922
▁알렉산드리아	-15923
분한	-15924
케의	-15925
ove	-15926
▁급속히	-15927
▁하나다	-15928
▁들어가게	-15929
▁음반으로	-15930
,5	-15931
복합	-15932
▁찾고	-15933
각으로	-15934
내었다	-15935
▁ATP	-15936
▁목소리	-15937
▁소관의	-15938
▁언어가	-15939
▁이동할	-15940
▁제공할	-15941
▁미래통합	-15942
▁고려시대의	-15943
▁확정되었다	-15944
요는	-15945
케는	-15946
한편	-15947
▁장사	-15948
▁파고	-15949
▁가문이	-15950
▁자유당	-15951
▁장소를	-15952
▁정하고	-15953
▁성장하였다	-15954
CN	-15955
코로	-15956
티를	-15957
▁낙하	-15958
▁소극	-15959
▁전락	-15960
▁통보	-15961
▁프롤	-15962
▁해남	-15963
운동이	-15964
▁대륙의	-15965
▁직책을	-15966
▁책임이	-15967
▁파괴되었다	-15968
양과	-15969
▁강은	-15970
▁경의	-15971
▁돌고	-15972
▁선천	-15973
▁승무	-15974
▁아데	-15975
▁터보	-15976
는다는	-15977
▁공장을	-15978
▁책이다	-15979
잉글랜드	-15980
▁전해지는	-15981
▁지역에는	-15982
▁항공모함	-15983
▁크리스티안	-15984
세키	-15985
심에	-15986
▁가솔	-15987
▁고아	-15988
겠지만	-15989
▁지구가	-15990
▁행동은	-15991
▁보이지만	-15992
▁효율적인	-15993
RI	-15994
바둑	-15995
천사	-15996
▁성전	-15997
▁은신	-15998
▁조롱	-15999
▁파충	-16000
▁영어를	-16001
▁용어가	-16002
▁철저히	-16003
화하였다	-16004
▁승강장으로	-16005
)〉	-16006
조리	-16007
▁죽기	-16008
▁레이싱	-16009
▁장점이	-16010
▁충청도	-16011
▁에콰도르	-16012
▁자료이다	-16013
▁발전하였다	-16014
견이	-16015
키타	-16016
▁동력	-16017
▁번갈	-16018
▁스포	-16019
▁잠깐	-16020
▁발달한	-16021
▁사형을	-16022
▁아나톨	-16023
▁측면을	-16024
▁스페이스	-16025
▁중앙정보	-16026
▁후쿠시마현	-16027
BI	-16028
경비	-16029
콜라	-16030
▁실재	-16031
▁원활	-16032
▁장미	-16033
▁제임	-16034
▁남자가	-16035
▁마르세	-16036
▁시절을	-16037
▁자메이	-16038
▁플랫폼을	-16039
▁실시되었다	-16040
ile	-16041
▁리조	-16042
▁매수	-16043
▁페니	-16044
▁방사능	-16045
▁시신을	-16046
▁존재로	-16047
▁피해자	-16048
▁아오모리	-16049
▁정의된다	-16050
랑을	-16051
▁Sh	-16052
▁이븐	-16053
▁전구	-16054
▁과정의	-16055
▁운행이	-16056
▁자료에	-16057
▁없었지만	-16058
▁지점에서	-16059
평의	-16060
▁김유	-16061
▁밀리	-16062
▁카시	-16063
▁히라	-16064
▁공격이	-16065
▁끌어들	-16066
▁의회에	-16067
▁주었고	-16068
▁정당이다	-16069
내려	-16070
하르	-16071
▁보강	-16072
▁비늘	-16073
▁염려	-16074
▁우세	-16075
▁장인	-16076
▁파는	-16077
▁바탕에	-16078
▁성명을	-16079
▁출판된	-16080
▁판정을	-16081
비언	-16082
▁서스	-16083
▁직책	-16084
▁집착	-16085
▁각자의	-16086
▁공간은	-16087
▁맡았던	-16088
▁북한이	-16089
▁장기간	-16090
▁공산당의	-16091
▁살아남은	-16092
▁필수적인	-16093
수지	-16094
어인	-16095
▁공명	-16096
▁넓고	-16097
▁전함	-16098
게이트	-16099
▁기법을	-16100
▁밴쿠버	-16101
▁시간대	-16102
▁회사에	-16103
▁대한항공	-16104
아라	-16105
▁83	-16106
▁모의	-16107
▁키보	-16108
▁교사로	-16109
▁연설을	-16110
▁체제로	-16111
▁프리메라	-16112
▁한국철도	-16113
▁방송되었다	-16114
▁현대자동차	-16115
▁샐	-16116
트넘	-16117
▁갤러	-16118
▁나주	-16119
▁세트	-16120
▁조병	-16121
▁느끼게	-16122
▁몬테네	-16123
▁언론의	-16124
▁프란치	-16125
▁황제를	-16126
▁하나로서	-16127
▁시작되었고	-16128
▁후쿠오카현	-16129
KB	-16130
봉은	-16131
불이	-16132
체른	-16133
son	-16134
▁Al	-16135
▁가중	-16136
▁호크	-16137
회사의	-16138
▁것과는	-16139
▁그만큼	-16140
▁사상은	-16141
▁케이스	-16142
▁혁명이	-16143
▁발표하고	-16144
▁움직임이	-16145
▁측정하는	-16146
나파	-16147
조치	-16148
▁관절	-16149
▁맡는	-16150
▁상해	-16151
▁파란	-16152
▁표를	-16153
▁뿌리를	-16154
▁신학자	-16155
▁자유의	-16156
▁플래시	-16157
▁기념하기	-16158
오자	-16159
▁모범	-16160
▁재선	-16161
▁지극	-16162
▁진을	-16163
▁치는	-16164
▁항쟁	-16165
▁않았을	-16166
▁청나라의	-16167
▁댓	-16168
거가	-16169
용과	-16170
▁DS	-16171
▁고생	-16172
▁이규	-16173
▁침묵	-16174
▁풍속	-16175
▁회귀	-16176
▁105	-16177
▁가공의	-16178
▁강화를	-16179
▁손상을	-16180
▁용인시	-16181
▁이용객	-16182
▁차트에	-16183
▁가르침을	-16184
가며	-16185
초가	-16186
▁경과	-16187
▁슈타	-16188
▁앙골	-16189
▁저격	-16190
▁카테	-16191
▁캐서	-16192
▁포수	-16193
공사의	-16194
▁공격은	-16195
▁시청률	-16196
▁자녀를	-16197
▁저널리	-16198
▁제목은	-16199
▁개봉되었다	-16200
부산	-16201
원수	-16202
che	-16203
▁간이	-16204
▁불행	-16205
▁산호	-16206
▁연동	-16207
▁유진	-16208
▁유해	-16209
▁쾰른	-16210
▁하비	-16211
회사가	-16212
▁강의를	-16213
▁이르게	-16214
음으로써	-16215
사범	-16216
▁GO	-16217
▁맛을	-16218
▁사당	-16219
▁우유	-16220
▁우파	-16221
▁인재	-16222
▁잦은	-16223
▁최진	-16224
▁결혼한	-16225
▁본부를	-16226
▁요청에	-16227
▁이스탄	-16228
▁카타르	-16229
▁공장에서	-16230
▁말미암아	-16231
▁투표에서	-16232
년생	-16233
리마	-16234
제곱	-16235
▁불완	-16236
▁유가	-16237
▁은혜	-16238
▁헤어	-16239
당했고	-16240
대학의	-16241
▁그리는	-16242
▁문화는	-16243
▁북유럽	-16244
▁종류는	-16245
▁표현은	-16246
▁플라이	-16247
대학교를	-16248
지역에서	-16249
▁1,500	-16250
고지	-16251
▁온다	-16252
▁이태	-16253
화했다	-16254
▁1-1	-16255
▁부근의	-16256
▁생산이	-16257
▁예선에	-16258
▁전역을	-16259
비오	-16260
사르	-16261
정리	-16262
크레	-16263
ung	-16264
▁즐거	-16265
▁칼로	-16266
디자인	-16267
시켜야	-16268
자에서	-16269
▁스즈키	-16270
▁싱글로	-16271
▁알프레	-16272
▁유럽에	-16273
▁침공을	-16274
▁항복을	-16275
시키면서	-16276
시브	-16277
우로	-16278
읍에	-16279
▁HT	-16280
▁닮은	-16281
▁103	-16282
▁도로는	-16283
▁작가가	-16284
▁어머니를	-16285
▁인도에서	-16286
▁정의한다	-16287
▁준우승에	-16288
런의	-16289
로워	-16290
슨을	-16291
처는	-16292
타워	-16293
▁기뻐	-16294
▁조로	-16295
▁종군	-16296
위이다	-16297
▁무궁화	-16298
▁법무부	-16299
▁시간과	-16300
▁알프스	-16301
사다	-16302
스레	-16303
약이	-16304
▁0.	-16305
▁교정	-16306
▁규탄	-16307
▁산시	-16308
▁양측	-16309
▁저널	-16310
▁파병	-16311
세포의	-16312
▁교육에	-16313
▁자격이	-16314
▁전하고	-16315
▁중기의	-16316
▁철학을	-16317
고등법원	-16318
▁발매했다	-16319
▁파견하여	-16320
▁국제적으로	-16321
~1	-16322
▁맘	-16323
▁계단	-16324
▁러일	-16325
▁진해	-16326
▁평의	-16327
직하고	-16328
테이너	-16329
▁수요가	-16330
▁시위가	-16331
▁아라곤	-16332
▁파일럿	-16333
료가	-16334
아트	-16335
ish	-16336
▁반전	-16337
▁삼척	-16338
▁수양	-16339
▁공간에	-16340
▁부부는	-16341
▁성으로	-16342
▁자치체	-16343
▁피아니스트	-16344
변호	-16345
위스	-16346
▁목판	-16347
▁부다	-16348
▁수녀	-16349
▁잡는	-16350
▁등에게	-16351
▁자세를	-16352
▁1888	-16353
PD	-16354
▁깜	-16355
▁극도로	-16356
▁은하의	-16357
▁케네디	-16358
▁데뷔하였으며	-16359
!!	-16360
료는	-16361
사적	-16362
안보	-16363
▁누나	-16364
▁돼지	-16365
▁송신	-16366
▁와인	-16367
▁폭파	-16368
▁2~3	-16369
▁노동당	-16370
▁비주얼	-16371
▁비중이	-16372
▁아키텍	-16373
▁접근을	-16374
▁새누리당	-16375
▁승리했다	-16376
▁아직까지	-16377
▁장소에서	-16378
도상	-16379
ala	-16380
~10	-16381
▁LA	-16382
▁고딕	-16383
▁김원	-16384
▁달고	-16385
▁선은	-16386
▁추존	-16387
조참판	-16388
▁구조와	-16389
▁기관의	-16390
▁등판해	-16391
▁사회가	-16392
▁어느날	-16393
▁지닌다	-16394
맥을	-16395
버의	-16396
선생	-16397
카리	-16398
포시	-16399
플래	-16400
▁육체	-16401
▁이양	-16402
▁지름	-16403
부에는	-16404
▁모델의	-16405
▁심리적	-16406
▁외국어	-16407
▁체제의	-16408
▁국가들은	-16409
▁스페인은	-16410
▁우루과이	-16411
▁선고받았다	-16412
▁떡	-16413
사자	-16414
▁레온	-16415
▁바우	-16416
웨스트	-16417
전부터	-16418
▁강남구	-16419
브가	-16420
ear	-16421
▁단원	-16422
▁비치	-16423
▁서임	-16424
▁신정	-16425
▁원통	-16426
▁유타	-16427
▁칭송	-16428
▁로마로	-16429
▁언급이	-16430
▁지위에	-16431
▁진행을	-16432
▁컴퓨팅	-16433
디나비아	-16434
▁공항으로	-16435
▁경기장이다	-16436
▁경제적으로	-16437
▁엥	-16438
붙이	-16439
승지	-16440
▁93	-16441
▁JT	-16442
▁관동	-16443
▁관세	-16444
▁띄는	-16445
▁산을	-16446
▁영산	-16447
▁이타	-16448
끄러운	-16449
▁마이애	-16450
▁지칭하는	-16451
례로	-16452
복이	-16453
하되	-16454
▁방화	-16455
▁옥타	-16456
▁재상	-16457
▁구성을	-16458
▁바스크	-16459
▁와일드	-16460
▁이라고	-16461
대학으로	-16462
▁들어왔다	-16463
▁담당하였다	-16464
배에	-16465
훈이	-16466
▁났다	-16467
▁링크	-16468
▁바와	-16469
▁위촉	-16470
▁카툰	-16471
번이나	-16472
위까지	-16473
▁끝난다	-16474
▁레오폴	-16475
▁렉	-16476
라토	-16477
옆면	-16478
▁강철	-16479
▁정동	-16480
▁하급	-16481
▁달리는	-16482
▁부문의	-16483
▁생각한	-16484
▁이와테	-16485
▁일대에서	-16486
▁주관하는	-16487
▁물체	-16488
▁아메	-16489
▁모았다	-16490
▁출전을	-16491
▁줄어들었다	-16492
벨트	-16493
천은	-16494
▁넣는	-16495
▁바젤	-16496
▁악의	-16497
▁차츰	-16498
▁밝혀진	-16499
바리	-16500
▁냉전	-16501
▁미에	-16502
▁박지	-16503
▁사쿠	-16504
▁수로	-16505
▁주권	-16506
▁펜싱	-16507
▁호프	-16508
조사를	-16509
펜하겐	-16510
▁갈라져	-16511
▁높았다	-16512
▁법칙을	-16513
▁소식이	-16514
▁종래의	-16515
▁없으므로	-16516
▁컴퓨터를	-16517
개씩	-16518
람쥐	-16519
매김	-16520
밴드	-16521
지던	-16522
직의	-16523
▁농부	-16524
▁보낼	-16525
▁안도	-16526
▁유식	-16527
로스의	-16528
▁강하다	-16529
▁반란이	-16530
▁병사를	-16531
▁벌어지는	-16532
▁뿐이었다	-16533
功臣	-16534
네티	-16535
락의	-16536
상황	-16537
쇼와	-16538
층과	-16539
크리	-16540
해질	-16541
▁그릴	-16542
▁증폭	-16543
▁해태	-16544
▁달러에	-16545
▁미래에	-16546
▁연주를	-16547
▁예컨대	-16548
▁외부의	-16549
▁현대에	-16550
▁덧붙였다	-16551
▁경기장에서	-16552
▁이탈리아는	-16553
사법	-16554
섬은	-16555
인당	-16556
-13	-16557
▁경호	-16558
▁기쁨	-16559
▁의회가	-16560
▁줄이기	-16561
▁차례에	-16562
▁진행한다	-16563
▁백두	-16564
▁키스	-16565
학자인	-16566
▁모로코	-16567
▁이론과	-16568
▁중심을	-16569
시키는데	-16570
진상규명	-16571
▁서울중앙	-16572
▁적용되는	-16573
▁예정이었다	-16574
▁굶	-16575
됐던	-16576
살에	-16577
증권	-16578
커를	-16579
후쿠	-16580
▁고개	-16581
▁나노	-16582
▁동위	-16583
방송을	-16584
▁3-1	-16585
▁따르고	-16586
▁쓰기도	-16587
▁1893	-16588
AF	-16589
▁겔	-16590
회원	-16591
▁궁전	-16592
▁말과	-16593
▁일일	-16594
▁결합을	-16595
▁기관이	-16596
▁대사관	-16597
▁추정되며	-16598
마디	-16599
후가	-16600
▁자제	-16601
▁지수	-16602
▁트란	-16603
▁해왕	-16604
익스피	-16605
ical	-16606
▁계통의	-16607
▁집단의	-16608
사관학교	-16609
▁실시했다	-16610
▁에너지의	-16611
▁문화체육관광	-16612
투수	-16613
▁대왕	-16614
▁리바	-16615
▁새긴	-16616
▁어업	-16617
▁하행	-16618
▁안되는	-16619
▁페트로	-16620
▁공간으로	-16621
고속도로의	-16622
6)	-16623
▁찐	-16624
등과	-16625
스퍼	-16626
▁군정	-16627
▁높여	-16628
▁미칠	-16629
▁불필	-16630
▁연한	-16631
민스터	-16632
▁미래를	-16633
▁발전소	-16634
▁외교관	-16635
▁장관이	-16636
▁주민의	-16637
▁평가가	-16638
▁10,000	-16639
문서	-16640
움이	-16641
▁기수	-16642
▁브랜	-16643
▁산이	-16644
▁성명	-16645
▁희곡	-16646
▁자라는	-16647
▁행위는	-16648
▁심지어는	-16649
▁아프리카계	-16650
GM	-16651
▁앰	-16652
국립	-16653
레니	-16654
상대	-16655
절로	-16656
▁델타	-16657
▁법에	-16658
▁숨을	-16659
▁외래	-16660
▁장안	-16661
▁충북	-16662
▁포털	-16663
▁해독	-16664
▁설계된	-16665
▁열대폭	-16666
▁설립하고	-16667
▁스리랑카	-16668
▁활용하여	-16669
▁몸은	-16670
두었다	-16671
바야시	-16672
학과에	-16673
▁것이기	-16674
▁당선된	-16675
▁번째는	-16676
▁선언을	-16677
▁인정을	-16678
▁제안한	-16679
▁공부했다	-16680
성장	-16681
짐에	-16682
~18	-16683
▁수교	-16684
지라도	-16685
▁가깝게	-16686
▁경계에	-16687
▁공으로	-16688
▁피라미	-16689
▁발견되며	-16690
▁활동으로	-16691
박을	-16692
▁당황	-16693
▁배운	-16694
▁쉽다	-16695
▁촉발	-16696
▁측이	-16697
▁부모는	-16698
▁벨기에의	-16699
▁수행하고	-16700
▁임명했다	-16701
▁패하였다	-16702
;,	-16703
-23	-16704
▁육식	-16705
놓았다	-16706
▁기관차	-16707
▁노래의	-16708
▁책에서	-16709
▁함대를	-16710
리그에서	-16711
▁거리에서	-16712
미네	-16713
배의	-16714
좌를	-16715
ium	-16716
▁가자	-16717
▁입수	-16718
▁제니	-16719
▁SNS	-16720
▁계획의	-16721
▁공군의	-16722
▁만난다	-16723
▁예전에	-16724
▁주변에서	-16725
▁종료되었다	-16726
로폰	-16727
▁후예	-16728
▁미나모토	-16729
▁스트리밍	-16730
마케	-16731
▁물과	-16732
▁배양	-16733
▁원더	-16734
▁콘테	-16735
리그에	-16736
전까지	-16737
land	-16738
▁에스페	-16739
스크리트	-16740
▁구성하고	-16741
▁엑스박스	-16742
▁일본군은	-16743
▁추정하고	-16744
▁정성	-16745
▁게이오	-16746
▁솔로몬	-16747
▁안타를	-16748
▁달라진다	-16749
▁동안에는	-16750
▁씻	-16751
나기	-16752
▁기와	-16753
▁불균	-16754
▁씨가	-16755
▁케빈	-16756
▁헌액	-16757
▁이론적	-16758
▁주지사	-16759
▁지내는	-16760
▁체제가	-16761
▁무시하고	-16762
▁받아들이지	-16763
경쟁	-16764
모노	-16765
▁구호	-16766
▁면을	-16767
▁미션	-16768
▁기술과	-16769
▁뉴캐슬	-16770
▁맞았다	-16771
▁시에라	-16772
▁참여를	-16773
▁1876	-16774
▁모델이다	-16775
▁어드벤처	-16776
▁경상북도의	-16777
」,	-16778
자동	-16779
처의	-16780
집으로	-16781
▁기록과	-16782
▁명이다	-16783
▁이뤄진	-16784
▁전원이	-16785
▁철저한	-16786
▁한다면	-16787
▁하느님의	-16788
▁쪼	-16789
감사	-16790
궁에	-16791
로프	-16792
마귀	-16793
복은	-16794
▁윈도	-16795
▁지미	-16796
▁폭이	-16797
▁허블	-16798
▁거리의	-16799
▁끝나는	-16800
▁나트륨	-16801
▁가능성도	-16802
▁대규모의	-16803
▁설립되어	-16804
▁분리되었다	-16805
든다	-16806
애니	-16807
통에	-16808
▁작다	-16809
▁걸쳐서	-16810
▁계속된	-16811
▁구조에	-16812
▁북서부	-16813
▁성매매	-16814
▁의원의	-16815
▁제주시	-16816
▁취임한	-16817
가쿠	-16818
군주	-16819
랑은	-16820
호르	-16821
are	-16822
▁답변	-16823
▁변동	-16824
▁읽는	-16825
▁호를	-16826
▁군대와	-16827
▁머리카	-16828
▁진출할	-16829
스테르담	-16830
▁스톡홀름	-16831
▁의과대학	-16832
▁체결했다	-16833
act	-16834
▁De	-16835
▁구금	-16836
▁안나	-16837
▁올드	-16838
▁유혹	-16839
▁인력	-16840
▁접해	-16841
분부터	-16842
▁맡기도	-16843
▁믿는다	-16844
▁의약품	-16845
▁정도는	-16846
AD	-16847
네오	-16848
시안	-16849
창은	-16850
▁급증	-16851
▁다크	-16852
▁더비	-16853
▁이이	-16854
▁비율을	-16855
▁상태는	-16856
▁성격의	-16857
▁위구르	-16858
▁존재했다	-16859
불의	-16860
숙종	-16861
언론	-16862
요리	-16863
▁부러	-16864
▁탈취	-16865
▁평민	-16866
▁비교해	-16867
▁서부의	-16868
▁왕조가	-16869
▁이바지	-16870
그라운드	-16871
▁목소리가	-16872
▁쿠웨이트	-16873
EM	-16874
ase	-16875
▁심근	-16876
▁우의	-16877
루스는	-16878
▁나이는	-16879
▁마르티	-16880
▁안전을	-16881
▁재정적	-16882
▁분포하고	-16883
▁이산화탄	-16884
▁인기있는	-16885
월을	-16886
▁달에	-16887
▁당내	-16888
▁더빙	-16889
▁드리	-16890
▁렌즈	-16891
▁하키	-16892
▁떠난다	-16893
▁문학의	-16894
▁죽음의	-16895
▁프로모	-16896
극의	-16897
음력	-16898
즈마	-16899
▁맞춤	-16900
▁부당	-16901
▁부평	-16902
▁얘기	-16903
▁좀더	-16904
▁채굴	-16905
▁가지지	-16906
▁광고를	-16907
▁초부터	-16908
도서관은	-16909
▁네트워크를	-16910
▁미토콘드리아	-16911
부아	-16912
컵을	-16913
파울	-16914
▁나일	-16915
▁노후	-16916
▁자크	-16917
▁그림은	-16918
▁몇몇의	-16919
▁비타민	-16920
▁예선을	-16921
▁제한이	-16922
▁홍콩의	-16923
▁미야자키	-16924
▁필요하다고	-16925
골의	-16926
도쿄	-16927
▁구이	-16928
▁선원	-16929
▁오기	-16930
▁칭기	-16931
▁뛰어넘	-16932
▁튀르크	-16933
▁학교는	-16934
▁주인공이	-16935
▁허리케인	-16936
▁첸	-16937
스투	-16938
▁반포	-16939
▁설문	-16940
▁성도	-16941
▁장이	-16942
▁제대	-16943
▁청춘	-16944
▁폭풍	-16945
▁비영리	-16946
▁이해를	-16947
▁사용하게	-16948
▁스페인어	-16949
▁인플레이션	-16950
▁CC	-16951
▁정제	-16952
▁유닉스	-16953
▁크리에	-16954
▁회장이	-16955
▁지나간다	-16956
▁죠	-16957
▁팰	-16958
호른	-16959
▁갖춰	-16960
▁번도	-16961
▁이메	-16962
▁초콜	-16963
▁미루어	-16964
이탈리아	-16965
▁독일군의	-16966
군인	-16967
먼의	-16968
박이	-16969
여우	-16970
▁서귀	-16971
▁피핀	-16972
▁성적이	-16973
▁여배우	-16974
▁역할로	-16975
▁중성자	-16976
▁거점으로	-16977
감한	-16978
그마	-16979
확인	-16980
▁발해	-16981
▁지침	-16982
▁쪽이	-16983
▁타르	-16984
▁원칙에	-16985
▁컨트리	-16986
▁이용되고	-16987
▁최고인민	-16988
서인	-16989
주아	-16990
▁요하	-16991
▁이건	-16992
▁나누는	-16993
▁단체는	-16994
▁소유의	-16995
▁태권도	-16996
▁훈장을	-16997
▁이베리아	-16998
▁코펜하겐	-16999
▁일반적이다	-17000
▁프랑스군은	-17001
머가	-17002
티즌	-17003
표준	-17004
행과	-17005
▁몰두	-17006
▁불신	-17007
▁악마	-17008
▁중형	-17009
▁차관	-17010
▁경력이	-17011
▁구성은	-17012
▁하느님	-17013
▁유래되었다	-17014
▁앗	-17015
락은	-17016
서스	-17017
▁과테	-17018
▁우한	-17019
나라가	-17020
되다가	-17021
▁LED	-17022
▁가리는	-17023
▁것들을	-17024
▁사상의	-17025
▁일주일	-17026
▁함수를	-17027
▁합류하여	-17028
~8	-17029
主義	-17030
리콘	-17031
줄기	-17032
old	-17033
▁상기	-17034
▁성리	-17035
▁탈레	-17036
▁단체인	-17037
▁중앙의	-17038
방향으로	-17039
▁1866	-17040
▁귀국하여	-17041
▁대학교는	-17042
▁쉴	-17043
농업	-17044
▁뚫고	-17045
로마치	-17046
비치는	-17047
▁두각을	-17048
▁데뷔골을	-17049
▁유니버설	-17050
▁활약으로	-17051
그를	-17052
하길	-17053
▁결핵	-17054
▁공성	-17055
▁문하	-17056
▁미성	-17057
▁상연	-17058
▁화해	-17059
강으로	-17060
▁기억을	-17061
▁기여한	-17062
▁기원은	-17063
▁사망자	-17064
▁싱글이다	-17065
▁예전에는	-17066
창이	-17067
표의	-17068
▁나비	-17069
▁복장	-17070
▁세가	-17071
▁입는	-17072
달라는	-17073
▁사무를	-17074
▁카이로	-17075
▁협회의	-17076
▁종목에서	-17077
▁회장으로	-17078
▁글꼴	-17079
▁맛이	-17080
▁색이	-17081
▁절벽	-17082
기면서	-17083
리스타	-17084
▁선거인	-17085
▁지진으로	-17086
▁프린스턴	-17087
▁헛	-17088
달라	-17089
료의	-17090
르다	-17091
변속	-17092
있어	-17093
초는	-17094
▁가산	-17095
▁군용	-17096
▁남하	-17097
▁보며	-17098
▁생일	-17099
▁스퀘	-17100
▁포럼	-17101
▁시민의	-17102
▁있듯이	-17103
▁전기를	-17104
되었음을	-17105
▁러시아가	-17106
▁시도했다	-17107
청과	-17108
충은	-17109
▁대접	-17110
▁말고	-17111
▁온난	-17112
▁장덕	-17113
▁혐오	-17114
스터는	-17115
▁대사를	-17116
▁밴드가	-17117
▁부르게	-17118
▁순서로	-17119
▁예로는	-17120
▁사회민주	-17121
▁혀	-17122
공립	-17123
막의	-17124
질에	-17125
▁급여	-17126
▁공격할	-17127
▁미하일	-17128
▁비중을	-17129
▁스칸디나비아	-17130
▁섀	-17131
수단	-17132
후기	-17133
▁금호	-17134
▁면적	-17135
▁배에	-17136
▁손잡	-17137
▁심해	-17138
▁아쿠	-17139
▁재차	-17140
▁조인	-17141
공으로	-17142
기관이	-17143
▁3-0	-17144
▁달했다	-17145
▁언어와	-17146
▁스트라이크	-17147
시다	-17148
저의	-17149
피에	-17150
▁급히	-17151
▁김민	-17152
▁앤더	-17153
▁제재	-17154
▁증진	-17155
▁오이타	-17156
▁전투로	-17157
▁지방도	-17158
▁총리를	-17159
▁투쟁을	-17160
▁사용하던	-17161
▁연합군은	-17162
▁프로레슬링	-17163
▁뢰	-17164
KBS	-17165
▁니혼	-17166
▁복선	-17167
▁수복	-17168
▁위함	-17169
시켜서	-17170
▁사업이	-17171
▁활동과	-17172
MB	-17173
공장	-17174
▁갈래	-17175
▁결핍	-17176
▁드레	-17177
▁무술	-17178
▁현종	-17179
세에서	-17180
▁공세를	-17181
▁다목적	-17182
▁벗어난	-17183
▁없으면	-17184
▁요제프	-17185
주식회사	-17186
▁연주하는	-17187
▁퐁	-17188
외교	-17189
▁베리	-17190
▁보행	-17191
▁유러	-17192
▁점거	-17193
마리의	-17194
일체유	-17195
▁성남시	-17196
▁아브라	-17197
▁조반니	-17198
▁존재는	-17199
▁대표팀의	-17200
▁클럽이다	-17201
바브	-17202
세요	-17203
일기	-17204
쾌한	-17205
패의	-17206
▁AD	-17207
▁무서	-17208
▁축성	-17209
▁치렀	-17210
▁편안	-17211
버스는	-17212
▁걸리는	-17213
▁바닥에	-17214
▁설명을	-17215
▁팬들의	-17216
▁버전으로	-17217
▁입단하여	-17218
▁간혹	-17219
▁만드	-17220
▁중위	-17221
▁천왕	-17222
색이다	-17223
▁김옥균	-17224
▁무엇을	-17225
▁아리아	-17226
▁가브리엘	-17227
▁취소되었다	-17228
동원	-17229
전대	-17230
▁대위	-17231
▁사인	-17232
▁본질적	-17233
▁피렌체	-17234
▁학문적	-17235
공화국의	-17236
▁1892	-17237
▁히틀러는	-17238
늦게	-17239
두가	-17240
소시	-17241
스콘	-17242
조지	-17243
▁귀속	-17244
▁발동	-17245
▁섭정	-17246
▁아빠	-17247
▁장흥	-17248
▁커서	-17249
국이다	-17250
▁다시금	-17251
▁단체가	-17252
▁메시지	-17253
▁바다의	-17254
▁물리학자	-17255
▁이주했다	-17256
▁프란체스코	-17257
르카	-17258
유대	-17259
질환	-17260
포타	-17261
▁오아	-17262
약으로	-17263
▁서양의	-17264
▁에어로	-17265
▁영토로	-17266
▁가르치는	-17267
판사	-17268
▁재일	-17269
▁점진	-17270
▁취한	-17271
▁하프	-17272
만명을	-17273
쳤으나	-17274
▁빠져나	-17275
▁직후에	-17276
▁교회에서	-17277
▁피아노를	-17278
)”	-17279
▁신입	-17280
▁이례	-17281
▁자책	-17282
▁중수	-17283
했었던	-17284
▁60%	-17285
▁수준이	-17286
▁시기가	-17287
▁아내가	-17288
▁지나면	-17289
▁혜택을	-17290
▁대비하여	-17291
▁반대하였다	-17292
▁꽂	-17293
비츠	-17294
▁모빌	-17295
▁문과	-17296
▁차원	-17297
▁퇴장	-17298
▁호쿠	-17299
-200	-17300
▁방어를	-17301
▁산맥의	-17302
▁세포가	-17303
▁가와사키	-17304
▁모습이다	-17305
▁못하도록	-17306
▁함경북도	-17307
▁대한민국에는	-17308
러와	-17309
ohn	-17310
▁거점	-17311
▁라디	-17312
▁쉽지	-17313
▁오해	-17314
▁저해	-17315
▁허드	-17316
▁흐루	-17317
베이성	-17318
▁머리가	-17319
▁사망할	-17320
▁스테파	-17321
▁핵융합	-17322
유산으로	-17323
여자대학교	-17324
RC	-17325
구미	-17326
수입	-17327
시기	-17328
저를	-17329
▁모금	-17330
▁배달	-17331
▁블레	-17332
▁비전	-17333
▁재난	-17334
페스트	-17335
한국당	-17336
▁버린다	-17337
▁본인은	-17338
▁유전적	-17339
/3	-17340
리면	-17341
운은	-17342
히코	-17343
▁거인	-17344
▁광물	-17345
▁미키	-17346
▁섞여	-17347
▁재래	-17348
▁칼슘	-17349
▁선택한	-17350
▁줄이고	-17351
▁지붕은	-17352
▁지상파	-17353
▁체결된	-17354
▁국회에서	-17355
▁캐릭터가	-17356
▁므	-17357
임의	-17358
통과	-17359
▁91	-17360
▁값은	-17361
▁거칠	-17362
퍼런스	-17363
▁건강한	-17364
▁사후에	-17365
▁연안에	-17366
▁항성의	-17367
▁1887	-17368
▁메릴랜드	-17369
▁이론에서	-17370
▁이용하고	-17371
▁중소기업	-17372
▁컴퓨터의	-17373
▁릭	-17374
망은	-17375
ron	-17376
▁관제	-17377
▁마린	-17378
▁막대	-17379
▁아레	-17380
▁열려	-17381
슬레틱	-17382
▁세네갈	-17383
▁지진의	-17384
▁질량을	-17385
▁프레이	-17386
▁지속되었다	-17387
sk	-17388
▁슛	-17389
순은	-17390
와라	-17391
캠퍼	-17392
▁늦은	-17393
▁서열	-17394
▁압록	-17395
리스는	-17396
▁경주시	-17397
▁남동쪽	-17398
▁별명이	-17399
▁사람에	-17400
▁일반적	-17401
▁가로질러	-17402
▁거치면서	-17403
▁설명하기	-17404
▁자유민주	-17405
▁채택되었다	-17406
ix	-17407
발트	-17408
사항	-17409
▁송출	-17410
▁위를	-17411
▁청룡	-17412
▁소말리아	-17413
▁시설관리	-17414
▁연관되어	-17415
▁이어지고	-17416
pt	-17417
▁늪	-17418
니크	-17419
루로	-17420
지상	-17421
▁백신	-17422
▁별세	-17423
▁자진	-17424
웠으며	-17425
▁마음의	-17426
▁콤팩트	-17427
▁NASA	-17428
▁죽음으로	-17429
▁할리우드	-17430
데라	-17431
yst	-17432
▁강행	-17433
▁관점	-17434
▁이씨	-17435
▁정몽	-17436
▁직사	-17437
▁타케	-17438
▁후진	-17439
주머니	-17440
▁그나마	-17441
▁나무를	-17442
▁논의가	-17443
▁얻었고	-17444
▁향상을	-17445
▁사용자는	-17446
▁이들에게	-17447
▁조사에서	-17448
▁꿈꾸	-17449
▁제너	-17450
▁창녕	-17451
▁쳤다	-17452
났으나	-17453
▁것인가	-17454
▁능력은	-17455
▁돌연변	-17456
▁분쟁을	-17457
▁상에서	-17458
▁속하지	-17459
▁위치로	-17460
▁파나마	-17461
▁유아기를	-17462
▁과학자들은	-17463
▁무산되었다	-17464
5)	-17465
광이	-17466
비르	-17467
살을	-17468
▁군마	-17469
▁반죽	-17470
▁용서	-17471
▁종신	-17472
▁바다를	-17473
▁상소를	-17474
▁프레데	-17475
▁확인된	-17476
▁국민투표	-17477
▁의미이다	-17478
▁장악하고	-17479
달마	-17480
토쿠	-17481
표로	-17482
▁공적	-17483
▁기니	-17484
▁박종	-17485
▁반감	-17486
▁삶에	-17487
지역을	-17488
▁거쳤다	-17489
▁상품을	-17490
▁쌓았다	-17491
▁앨범에	-17492
▁오리온	-17493
▁요르단	-17494
▁추가된	-17495
▁강력하게	-17496
들리	-17497
협정	-17498
rom	-17499
▁림프	-17500
▁바울	-17501
▁수필	-17502
▁정자	-17503
▁중이며	-17504
▁기록이다	-17505
▁하이브리	-17506
▁인정받았다	-17507
▁웬	-17508
▁펩	-17509
▁Su	-17510
▁미륵	-17511
▁삼림	-17512
▁에레	-17513
▁장벽	-17514
▁호랑	-17515
시간에	-17516
▁검찰은	-17517
▁국왕이	-17518
▁반정부	-17519
▁볼티모	-17520
▁장치가	-17521
▁접어들	-17522
▁대다수의	-17523
▁말하자면	-17524
▁유래하였다	-17525
co	-17526
바와	-17527
양에	-17528
처분	-17529
택이	-17530
▁아치	-17531
▁앞세	-17532
▁양대	-17533
사에게	-17534
▁글로브	-17535
▁두꺼운	-17536
▁무엇이	-17537
▁없음을	-17538
▁1881	-17539
▁설일체유	-17540
▁인도네시아의	-17541
▁몹	-17542
▁공예	-17543
▁때를	-17544
▁뱅크	-17545
▁복권	-17546
▁성악	-17547
ound	-17548
▁박사는	-17549
▁일자리	-17550
▁주제는	-17551
▁펠리페	-17552
오버	-17553
처가	-17554
▁선봉	-17555
▁승용	-17556
▁튼튼	-17557
▁남편이	-17558
▁본부는	-17559
▁합의를	-17560
▁도입했다	-17561
EN	-17562
신앙	-17563
율과	-17564
합성	-17565
▁공휴	-17566
▁송파	-17567
▁인원	-17568
▁가격은	-17569
▁가문을	-17570
▁라파엘	-17571
▁파푸아	-17572
▁보호하고	-17573
▁전해지고	-17574
▁클럽에서	-17575
▁테스트를	-17576
▁역임했으며	-17577
루엔	-17578
▁과연	-17579
▁물은	-17580
▁복소	-17581
▁요정	-17582
▁읽을	-17583
▁지는	-17584
시이다	-17585
억원을	-17586
▁III	-17587
▁기반이	-17588
▁신주쿠	-17589
▁신체적	-17590
▁클레이	-17591
▁포유류	-17592
▁자신만의	-17593
▁콘서트를	-17594
▁폐지하고	-17595
금속	-17596
있지	-17597
ius	-17598
▁고든	-17599
▁연희	-17600
▁참수	-17601
▁부정적	-17602
▁샌디에	-17603
▁해석을	-17604
▁에스페란	-17605
~7	-17606
▁썬	-17607
』(	-17608
기일	-17609
수송	-17610
제인	-17611
▁국장	-17612
▁기성	-17613
▁일차	-17614
▁타락	-17615
단에는	-17616
▁기대를	-17617
▁이사회	-17618
▁조사한	-17619
▁1886	-17620
▁현재까지도	-17621
데자	-17622
지금	-17623
촌은	-17624
▁94	-17625
▁당뇨	-17626
▁열릴	-17627
▁우두	-17628
▁이현	-17629
▁카즈	-17630
▁CBS	-17631
▁하겠다	-17632
만으로는	-17633
▁1873	-17634
▁없었다고	-17635
▁보고되었다	-17636
▁원칙적으로	-17637
▁노스캐롤라이나	-17638
등은	-17639
러드	-17640
최고	-17641
▁나간	-17642
▁남인	-17643
▁칼을	-17644
▁털은	-17645
▁같다고	-17646
▁교황은	-17647
▁브뤼셀	-17648
▁알제리	-17649
▁행위에	-17650
▁1850	-17651
▁기념하는	-17652
▁무로마치	-17653
▁발전했다	-17654
▁이주하여	-17655
▁러시아에서	-17656
발생	-17657
버른	-17658
▁격리	-17659
▁고추	-17660
▁만날	-17661
▁살짝	-17662
▁성폭	-17663
▁세라	-17664
▁기준에	-17665
▁대체할	-17666
▁뒤에서	-17667
▁직업을	-17668
▁함수는	-17669
▁(200	-17670
니오	-17671
턴이	-17672
▁요절	-17673
▁한큐	-17674
▁홍수	-17675
▁황폐	-17676
르트는	-17677
▁그밖에	-17678
▁소피아	-17679
▁유치원	-17680
▁참여하지	-17681
▁널	-17682
네르	-17683
분간	-17684
천과	-17685
회관	-17686
▁관상	-17687
▁로페	-17688
▁자작	-17689
▁하니	-17690
▁Com	-17691
▁배치된	-17692
▁시호는	-17693
▁여부에	-17694
▁인물의	-17695
▁국립공원	-17696
▁단백질의	-17697
▁유사하게	-17698
▁자리하고	-17699
▁개발하였다	-17700
▁창설되었다	-17701
▁친일반민족행위진상규명	-17702
▁내며	-17703
▁돋보	-17704
▁어리	-17705
▁이누	-17706
▁카지	-17707
▁함흥	-17708
▁화순	-17709
▁구멍을	-17710
▁남성이	-17711
▁롬바르	-17712
▁도카이도	-17713
▁인정했다	-17714
▁자택에서	-17715
▁거절하였다	-17716
개소	-17717
노리	-17718
▁고장	-17719
▁대역	-17720
▁산요	-17721
▁서인	-17722
르타뉴	-17723
▁이겼다	-17724
▁인물은	-17725
▁주장도	-17726
▁케플러	-17727
▁포로가	-17728
▁서산	-17729
▁조부	-17730
▁최강	-17731
단체의	-17732
▁적당한	-17733
▁즐기는	-17734
▁1861	-17735
韓國	-17736
오던	-17737
▁끝을	-17738
▁틈을	-17739
▁논란의	-17740
▁와이번	-17741
▁하늘을	-17742
""(""	-17743
▁콘스탄티	-17744
▁킴	-17745
▁대각	-17746
▁쏘아	-17747
▁체조	-17748
▁프렌	-17749
▁돌아왔	-17750
▁마누엘	-17751
▁법원은	-17752
▁소재한	-17753
▁위험에	-17754
▁국가보안	-17755
▁정체성을	-17756
▁진출하여	-17757
시킴으로써	-17758
▁산스크리트	-17759
▁시작되었으며	-17760
▁싼	-17761
면적	-17762
브와	-17763
직이	-17764
카쿠	-17765
▁강풍	-17766
▁구장	-17767
▁커플	-17768
궐선거	-17769
민들이	-17770
▁과학의	-17771
▁도메인	-17772
▁마르틴	-17773
▁요소로	-17774
▁중부에	-17775
▁철도를	-17776
▁화재로	-17777
▁1864	-17778
▁유명하며	-17779
▁시리즈이다	-17780
냐고	-17781
▁습득	-17782
▁시직	-17783
▁필연	-17784
ment	-17785
▁되므로	-17786
▁산티아	-17787
▁저지대	-17788
▁챌린지	-17789
법원에서	-17790
▁보고서를	-17791
▁주변에는	-17792
▁제정되었다	-17793
륜구	-17794
하곤	-17795
▁노바	-17796
▁둘이	-17797
▁정주	-17798
▁하코	-17799
▁휩싸	-17800
정부를	-17801
▁레이더	-17802
▁보였고	-17803
▁장관은	-17804
▁조화를	-17805
▁주의를	-17806
▁사이에서는	-17807
▁인도차이나	-17808
▁뱅	-17809
공과	-17810
메트	-17811
▁막고	-17812
▁순차	-17813
▁애완	-17814
르면서	-17815
역이며	-17816
▁공헌을	-17817
▁무너뜨	-17818
▁움직일	-17819
▁전자는	-17820
▁살아가는	-17821
▁진행되어	-17822
▁대체적으로	-17823
코딩	-17824
형사	-17825
후는	-17826
▁끼고	-17827
▁맹세	-17828
▁안방	-17829
▁엄마	-17830
▁인적	-17831
▁자료로	-17832
▁결승골을	-17833
▁아틀레틱	-17834
▁프란치스코	-17835
▁활동하면서	-17836
ork	-17837
▁버마	-17838
▁상소	-17839
▁엔터	-17840
▁이단	-17841
▁인가	-17842
▁출퇴	-17843
년마다	-17844
렸다는	-17845
코치로	-17846
하지도	-17847
▁기온은	-17848
▁루돌프	-17849
▁인해서	-17850
제철	-17851
폐합	-17852
▁말도	-17853
▁박정	-17854
▁사신	-17855
▁주주	-17856
▁지탱	-17857
연합회	-17858
▁기사가	-17859
▁기지를	-17860
▁사태를	-17861
▁섬에서	-17862
▁아들의	-17863
▁작품인	-17864
▁처벌을	-17865
▁스트레스	-17866
▁앨범이다	-17867
▁연루되어	-17868
▁운행된다	-17869
▁암스테르담	-17870
▁완성되었다	-17871
대리	-17872
무관	-17873
섬유	-17874
▁김형	-17875
▁모욕	-17876
▁신진	-17877
▁안고	-17878
▁자서	-17879
▁증상	-17880
▁한가	-17881
버스가	-17882
▁유용한	-17883
▁주도는	-17884
▁책으로	-17885
▁탁월한	-17886
▁브루클린	-17887
▁측에서는	-17888
▁콘텐츠를	-17889
리쿠	-17890
말의	-17891
종인	-17892
▁굴절	-17893
▁소행	-17894
▁아와	-17895
▁여부	-17896
현으로	-17897
▁교류를	-17898
▁마을로	-17899
▁벌이는	-17900
▁아무리	-17901
▁정보의	-17902
▁중요시	-17903
▁고향으로	-17904
▁라이선스	-17905
▁발표하여	-17906
▁어항이다	-17907
▁향토문화유산	-17908
▁촛	-17909
설의	-17910
▁5%	-17911
▁동요	-17912
▁뒤의	-17913
▁알맞	-17914
▁편향	-17915
▁법안을	-17916
▁오세아	-17917
▁거절했다	-17918
▁시민들이	-17919
루이	-17920
킨스	-17921
net	-17922
▁가타	-17923
▁거세	-17924
▁대포	-17925
▁떠날	-17926
▁산에	-17927
▁성행	-17928
▁각지에	-17929
▁방사선	-17930
▁방송이	-17931
▁제시했다	-17932
녀로	-17933
마니	-17934
중종	-17935
▁몽고	-17936
▁세분	-17937
▁초고	-17938
▁테라	-17939
대회에	-17940
운동장	-17941
▁독립한	-17942
▁수원시	-17943
▁시이다	-17944
▁작전은	-17945
▁채널을	-17946
▁하나씩	-17947
▁운행되고	-17948
▁자리매김	-17949
HL	-17950
▁홉	-17951
례가	-17952
트맨	-17953
▁메카	-17954
▁별을	-17955
▁사슴	-17956
▁신동	-17957
▁직행	-17958
▁코시	-17959
▁내린다	-17960
▁버스를	-17961
▁사업은	-17962
▁숫자는	-17963
▁정교한	-17964
▁개편되었다	-17965
매를	-17966
여단	-17967
mer	-17968
▁경인	-17969
▁관음	-17970
▁딸과	-17971
▁로얄	-17972
▁자립	-17973
▁줄일	-17974
야말로	-17975
▁남편의	-17976
▁라오스	-17977
▁이름에	-17978
▁자유와	-17979
▁1830	-17980
▁장남으로	-17981
라니	-17982
청장	-17983
헤드	-17984
문화의	-17985
우스와	-17986
▁높이기	-17987
▁문자로	-17988
▁현실을	-17989
▁스테이션	-17990
▁북서쪽으로	-17991
명도	-17992
속도	-17993
업무	-17994
정맥	-17995
▁과시	-17996
▁낮고	-17997
▁불변	-17998
▁위생	-17999
▁키르	-18000
리기도	-18001
해서는	-18002
▁가격을	-18003
▁등지에	-18004
▁왕조를	-18005
▁월요일	-18006
▁환자가	-18007
▁국민들의	-18008
▁기관이다	-18009
▁인터뷰를	-18010
문인	-18011
바를	-18012
아노	-18013
▁Sp	-18014
▁감상	-18015
▁리에	-18016
▁조회	-18017
▁추론	-18018
▁트램	-18019
나무는	-18020
부분은	-18021
▁Pro	-18022
▁가솔린	-18023
▁구축함	-18024
▁네티즌	-18025
▁멤버가	-18026
▁보냈고	-18027
▁영토가	-18028
▁테네시	-18029
▁텍사스주	-18030
주의자들은	-18031
hy	-18032
다와	-18033
샤오	-18034
▁진한	-18035
▁컴백	-18036
▁페로	-18037
자리의	-18038
천으로	-18039
▁선거가	-18040
▁주계열	-18041
▁홈경기	-18042
데자네이	-18043
▁브르타뉴	-18044
▁살펴보면	-18045
▁협력하여	-18046
▁댈	-18047
유전	-18048
티와	-18049
▁구독	-18050
▁띠는	-18051
▁목회	-18052
▁상점	-18053
▁평야	-18054
▁히메	-18055
호이다	-18056
▁눈물을	-18057
▁보이기	-18058
▁자국의	-18059
▁초콜릿	-18060
지역으로	-18061
▁공유하는	-18062
▁올라가는	-18063
▁유지하였다	-18064
가미	-18065
타수	-18066
▁두지	-18067
▁미소	-18068
▁수중	-18069
사무소	-18070
▁간사이	-18071
▁권한이	-18072
▁부인은	-18073
▁희망을	-18074
▁근거하여	-18075
▁여름에는	-18076
와서	-18077
▁각국	-18078
▁무안	-18079
▁번창	-18080
대학을	-18081
제이다	-18082
▁도시와	-18083
▁동부의	-18084
▁따르지	-18085
▁사진이	-18086
▁아이콘	-18087
▁예술의	-18088
▁유니언	-18089
▁정당의	-18090
▁지분을	-18091
▁룸	-18092
비한	-18093
▁SP	-18094
▁굴복	-18095
▁기법	-18096
▁재팬	-18097
▁정선	-18098
▁다리는	-18099
▁방대한	-18100
▁온도는	-18101
▁셰익스피	-18102
▁율리우스	-18103
▁아카데미상	-18104
▁학생들에게	-18105
개미	-18106
▁mm	-18107
▁김선	-18108
▁맹활	-18109
▁아쉬	-18110
▁지부	-18111
▁찾지	-18112
▁픽처	-18113
idae	-18114
▁3.1	-18115
▁겨울에	-18116
▁지원이	-18117
▁그레고리	-18118
▁제공하기	-18119
▁△	-18120
담당	-18121
하신	-18122
호마	-18123
▁Me	-18124
▁법은	-18125
▁비싼	-18126
▁한달	-18127
▁헌병	-18128
미사일	-18129
코리아	-18130
▁국가들	-18131
▁다나카	-18132
▁인식을	-18133
▁주파수	-18134
▁타인의	-18135
▁행사가	-18136
▁대중에게	-18137
▁제작했다	-18138
▁캐릭터의	-18139
▁거부하였다	-18140
니언	-18141
▁도둑	-18142
▁칸이	-18143
▁기초한	-18144
▁설계를	-18145
▁자연의	-18146
▁데스크톱	-18147
▁돌아가는	-18148
▁이슬람교	-18149
▁네이션스컵	-18150
▁중국공산당	-18151
께끼	-18152
소련	-18153
탄올	-18154
▁감자	-18155
▁그외	-18156
▁나미	-18157
▁농어	-18158
▁일화	-18159
클리드	-18160
▁언론인	-18161
▁이사를	-18162
▁제의를	-18163
▁특성상	-18164
▁퍼스트	-18165
▁공화국은	-18166
▁애슬레틱	-18167
--	-18168
9)	-18169
메드	-18170
움과	-18171
▁앞둔	-18172
▁떠나는	-18173
▁아이의	-18174
▁연락을	-18175
▁요인이	-18176
하기까지	-18177
▁않았는데	-18178
▁올림피아	-18179
▁시스템에서	-18180
▁괄	-18181
자문	-18182
▁(1	-18183
▁가의	-18184
▁구한	-18185
▁엔트	-18186
▁제명	-18187
▁캄파	-18188
▁분쟁이	-18189
▁우루과	-18190
▁정권은	-18191
▁충돌이	-18192
▁패러디	-18193
▁국가대표팀에서	-18194
그와	-18195
▁닫힌	-18196
▁시몬	-18197
▁자행	-18198
▁조에	-18199
▁포터	-18200
▁가능성	-18201
▁루체른	-18202
▁운동과	-18203
▁크기와	-18204
▁휴대전	-18205
▁극단적인	-18206
▁패럴림픽	-18207
노미	-18208
리드	-18209
손의	-18210
탄이	-18211
▁곡물	-18212
▁군벌	-18213
▁베풀	-18214
로니아	-18215
르기스	-18216
▁기원후	-18217
▁리프트	-18218
▁엔진의	-18219
▁여기는	-18220
▁전성기를	-18221
▁개인적으로	-18222
ve	-18223
▁딕	-18224
쓰고	-18225
화문	-18226
▁군중	-18227
▁배터	-18228
▁실각	-18229
▁에게	-18230
▁원반	-18231
▁정인	-18232
▁죽여	-18233
▁호족	-18234
바이러	-18235
시키려	-18236
▁길이를	-18237
▁장악한	-18238
▁주변을	-18239
▁질문을	-18240
▁확장을	-18241
▁이동하여	-18242
▁집중되어	-18243
▁제작하였다	-18244
▁최고인민회의	-18245
배로	-18246
▁마비	-18247
▁정이	-18248
▁청색	-18249
▁팔아	-18250
▁교황이	-18251
▁기업은	-18252
▁독일을	-18253
▁부모가	-18254
▁저지른	-18255
▁아이디어	-18256
▁의원으로	-18257
렌은	-18258
모르	-18259
서비	-18260
팀과	-18261
▁김인	-18262
▁묻혀	-18263
▁세레	-18264
▁인위	-18265
▁재앙	-18266
▁종식	-18267
▁친왕	-18268
▁구조적	-18269
▁그러다	-18270
▁설립을	-18271
▁참가해	-18272
▁집안에서	-18273
▁취득하였다	-18274
공작	-18275
▁길다	-18276
▁능동	-18277
▁덴쇼	-18278
▁얕은	-18279
▁요격	-18280
▁징수	-18281
▁핑크	-18282
▁혼혈	-18283
▁귀국한	-18284
▁능력과	-18285
▁되어서	-18286
▁성적은	-18287
▁유러피언	-18288
▁취득했다	-18289
▁프로세서	-18290
▁푸에르토리	-18291
산염	-18292
▁단장	-18293
▁미라	-18294
▁신원	-18295
▁엉덩	-18296
▁자와	-18297
▁진흙	-18298
▁패해	-18299
▁핵무	-18300
는지에	-18301
다니며	-18302
▁발전과	-18303
▁아카이	-18304
▁일부의	-18305
▁후자의	-18306
▁거두었고	-18307
골이	-18308
명칭	-18309
목과	-18310
Mar	-18311
▁과잉	-18312
▁나빠	-18313
▁배척	-18314
▁인형	-18315
▁책이	-18316
▁팔작	-18317
~200	-18318
▁거뒀다	-18319
▁로스쿨	-18320
▁신청을	-18321
▁화재가	-18322
▁발탁되어	-18323
▁종목이다	-18324
강도	-18325
노부	-18326
랑의	-18327
▁격렬	-18328
▁민정	-18329
▁아다	-18330
▁장쑤	-18331
▁편이	-18332
상태가	-18333
▁세포는	-18334
▁여성과	-18335
▁연대를	-18336
▁조건에	-18337
▁패하여	-18338
▁아이들이	-18339
▁꿰	-18340
구속	-18341
코토	-18342
ina	-18343
▁신민	-18344
▁진료	-18345
▁교회와	-18346
▁사헌부	-18347
▁의사가	-18348
▁이같은	-18349
▁정책이	-18350
▁학생을	-18351
▁대량으로	-18352
▁있었기에	-18353
▁제공된다	-18354
▁국회의원을	-18355
감염	-18356
lan	-18357
ree	-18358
▁때와	-18359
▁상고	-18360
▁식사	-18361
▁씨는	-18362
▁출동	-18363
급으로	-18364
▁금요일	-18365
▁멜버른	-18366
▁법률을	-18367
▁선수단	-18368
▁성능이	-18369
▁숫자를	-18370
▁운영한다	-18371
▁캐릭터로	-18372
lo	-18373
▁끄	-18374
근과	-18375
아카	-18376
지스	-18377
▁건널	-18378
▁내포	-18379
▁매킨	-18380
▁용암	-18381
▁형용	-18382
무장관	-18383
했기에	-18384
▁치료에	-18385
▁가수이다	-18386
▁이상적인	-18387
▁출연한다	-18388
▁확인했다	-18389
럴드	-18390
치면	-18391
피오	-18392
함수	-18393
ram	-18394
▁8,	-18395
▁무솔	-18396
▁일족	-18397
부분이	-18398
▁그러고	-18399
▁혼자서	-18400
▁화제를	-18401
初等學校	-18402
▁겨울에는	-18403
▁보고했다	-18404
▁판매되었다	-18405
백화	-18406
순이	-18407
▁길러	-18408
▁어우	-18409
▁조심	-18410
▁총무	-18411
▁파면	-18412
▁한창	-18413
청소년	-18414
▁수단을	-18415
▁아내와	-18416
▁이제는	-18417
▁종류에	-18418
▁해에는	-18419
▁설치했다	-18420
▁양식으로	-18421
▁조약으로	-18422
▁제시하였다	-18423
▁시설관리자는	-18424
_3	-18425
공개	-18426
예가	-18427
학술	-18428
▁엇갈	-18429
▁퇴직	-18430
시간을	-18431
▁넘치는	-18432
▁신석기	-18433
▁여부는	-18434
▁예정인	-18435
▁대중적인	-18436
▁위원으로	-18437
▁이데올로	-18438
▁프로그램에서	-18439
AE	-18440
▁그랬	-18441
▁반역	-18442
▁후방	-18443
현에서	-18444
▁두개의	-18445
▁재료로	-18446
▁지하에	-18447
▁학교가	-18448
▁후보의	-18449
▁구역으로	-18450
▁그랑프리	-18451
▁남베트남	-18452
▁법적으로	-18453
▁요청하였다	-18454
공단	-18455
네를	-18456
술이	-18457
훈의	-18458
▁계수	-18459
▁생길	-18460
▁예가	-18461
▁남성과	-18462
▁말에서	-18463
▁자체에	-18464
▁작가로	-18465
▁파견된	-18466
▁아시아의	-18467
▁안전하게	-18468
7)	-18469
기만	-18470
기하	-18471
부작	-18472
숙은	-18473
오게	-18474
위해	-18475
재와	-18476
탄은	-18477
▁류큐	-18478
▁비어	-18479
▁시속	-18480
▁조슈	-18481
가지가	-18482
동물의	-18483
▁거쳐서	-18484
▁당하는	-18485
▁사업의	-18486
▁요시다	-18487
▁의회를	-18488
▁줄이는	-18489
▁필리핀의	-18490
▁교체되었다	-18491
▁안장되었다	-18492
▁아리스토텔레	-18493
월이	-18494
위치	-18495
질과	-18496
출력	-18497
피트	-18498
~15	-18499
▁구획	-18500
▁넷플	-18501
▁피오	-18502
▁한중	-18503
보았다	-18504
▁규정이	-18505
▁대의원	-18506
▁라이너	-18507
▁별자리	-18508
▁불분명	-18509
▁수준에	-18510
▁아들은	-18511
▁영향은	-18512
▁총애를	-18513
▁확률이	-18514
▁계속하여	-18515
▁보수적인	-18516
▁선언하고	-18517
▁유니폼을	-18518
▁인상적인	-18519
und	-18520
▁레일	-18521
▁마땅	-18522
▁만장	-18523
▁신을	-18524
▁음이	-18525
베스트	-18526
▁세계로	-18527
▁원소의	-18528
▁유래는	-18529
▁전제로	-18530
▁지방은	-18531
▁1891	-18532
▁경기장은	-18533
▁국가들의	-18534
▁프로세스	-18535
▁프로젝트에	-18536
물리	-18537
인사	-18538
orn	-18539
▁군복	-18540
▁긴키	-18541
▁마요	-18542
▁의류	-18543
▁임의	-18544
▁청계	-18545
▁가설을	-18546
▁대사헌	-18547
▁뒤늦게	-18548
노동조합	-18549
▁등에서는	-18550
▁스스로의	-18551
▁에너지는	-18552
▁크리에이	-18553
▁배치되었다	-18554
▁前	-18555
링의	-18556
▁버진	-18557
▁상이	-18558
▁송도	-18559
▁양보	-18560
▁자카	-18561
▁하타	-18562
▁수차례	-18563
▁평했다	-18564
▁행위가	-18565
삼국사기	-18566
▁유라시아	-18567
▁통합되었다	-18568
▁프랜차이즈	-18569
▁국가대표팀은	-18570
▁프리미어리그의	-18571
▁딥	-18572
▁공자	-18573
▁스와	-18574
다니는	-18575
▁일원이	-18576
▁자민당	-18577
▁전국에	-18578
▁조약의	-18579
▁중국이	-18580
▁집단이	-18581
▁디자인이	-18582
▁제거하는	-18583
▁출마하여	-18584
포켓몬스터	-18585
순의	-18586
▁겪는	-18587
▁주먹	-18588
▁카프	-18589
▁경우와	-18590
▁발견은	-18591
▁슬라이	-18592
▁시대는	-18593
▁이름도	-18594
▁1863	-18595
▁리우데자네이	-18596
▁마셜	-18597
▁처한	-18598
바브웨	-18599
우리가	-18600
자마자	-18601
▁무사히	-18602
▁여학생	-18603
▁옆으로	-18604
▁있으니	-18605
▁적외선	-18606
▁참의원	-18607
▁초까지	-18608
▁케이프	-18609
▁1878	-18610
▁분류한다	-18611
▁손해배상	-18612
지방검찰청	-18613
▁괌	-18614
▁멍	-18615
합의	-18616
▁GP	-18617
▁다행	-18618
▁막스	-18619
▁이범	-18620
▁일각	-18621
▁전멸	-18622
분까지	-18623
었다는	-18624
▁그것에	-18625
▁기원을	-18626
▁수시로	-18627
▁여론이	-18628
▁형식은	-18629
▁형제는	-18630
으로서는	-18631
결한	-18632
궤도	-18633
꾸로	-18634
딘은	-18635
키스	-18636
▁변광	-18637
▁부추	-18638
▁국내에	-18639
▁범위는	-18640
▁보기도	-18641
▁선정된	-18642
▁소설의	-18643
▁연관이	-18644
▁이루지	-18645
▁계속했다	-18646
▁메소포타	-18647
▁반대했다	-18648
▁분포하는	-18649
▁중앙은행	-18650
▁프톨레마이오스	-18651
(9	-18652
설계	-18653
▁고이	-18654
▁우체	-18655
▁배우고	-18656
▁불가피	-18657
▁시장은	-18658
아메리칸	-18659
▁이전하였다	-18660
드래	-18661
삼진	-18662
일부	-18663
▁김명	-18664
▁명종	-18665
▁잔존	-18666
▁저질	-18667
세포는	-18668
▁220	-18669
▁강력히	-18670
대학교는	-18671
▁발매하였다	-18672
▁민족문제연구소의	-18673
')	-18674
먼이	-18675
움의	-18676
위한	-18677
큐슈	-18678
▁re	-18679
▁대에	-18680
▁드라	-18681
▁상정	-18682
▁손님	-18683
▁정적	-18684
새로운	-18685
▁역할이	-18686
▁연대는	-18687
▁옥수수	-18688
▁주니치	-18689
▁클럽은	-18690
퍼레이션	-18691
▁순서대로	-18692
▁시민권을	-18693
▁의도적으로	-18694
▁자체적으로	-18695
An	-18696
RE	-18697
·2	-18698
기아	-18699
▁좌의	-18700
▁콜레	-18701
▁인사를	-18702
▁입장에	-18703
▁가운데에	-18704
▁개발하는	-18705
▁국가들이	-18706
▁북동쪽으로	-18707
▁전라남도의	-18708
▁김광	-18709
▁나루	-18710
▁복역	-18711
▁설비	-18712
▁세븐	-18713
대서양	-18714
▁활용한	-18715
형문화재	-18716
▁사용했던	-18717
▁생각하여	-18718
▁일치한다	-18719
▁한국독립	-18720
만인	-18721
은하	-18722
▁구부	-18723
▁나뭇	-18724
▁불에	-18725
▁신봉	-18726
기관인	-18727
사단의	-18728
▁1/3	-18729
▁빅토르	-18730
▁요소는	-18731
▁1865	-18732
▁독일군은	-18733
▁미쓰비시	-18734
▁사라지고	-18735
▁초등학교다	-18736
방정	-18737
태는	-18738
▁꾸며	-18739
▁병자	-18740
▁왕과	-18741
시설을	-18742
이것은	-18743
▁북부와	-18744
▁생방송	-18745
▁속이다	-18746
▁시행된	-18747
▁향했다	-18748
▁기록했으며	-18749
▁사운드트랙	-18750
▁중국에서는	-18751
▁애니메이션이다	-18752
겨울	-18753
척이	-18754
포도	-18755
▁주저	-18756
▁확고	-18757
때까지	-18758
▁기초가	-18759
▁범위가	-18760
▁솔루션	-18761
▁오클라	-18762
▁차세대	-18763
다오	-18764
라드	-18765
여행	-18766
임에	-18767
학사	-18768
▁도키	-18769
▁백과	-18770
▁예일	-18771
▁노래로	-18772
▁도르트	-18773
▁생각은	-18774
▁트라야	-18775
▁파시즘	-18776
▁폭넓은	-18777
▁해안을	-18778
▁시작되는	-18779
▁충청남도의	-18780
▁마다가스카르	-18781
채의	-18782
]],	-18783
▁레즈	-18784
▁버린	-18785
▁섞어	-18786
▁최장	-18787
▁계승한	-18788
▁맡는다	-18789
▁사명을	-18790
[...]
